en 1
▁d 1
er 1
es 1
▁a 1
on 1
in 1
▁s 1
▁p 1
▁c 1
▁l 1
▁t 1
an 1
re 1
▁de 1
ti 1
or 1
ch 1
un 1
ar 1
▁m 1
is 1
▁e 1
te 1
al 1
as 1
it 1
os 1
▁f 1
qu 1
ur 1
ll 1
▁n 1
he 1
at 1
▁un 1
▁b 1
ent 1
ie 1
▁in 1
ro 1
▁v 1
us 1
▁w 1
▁o 1
ci 1
▁la 1
om 1
le 1
ra 1
▁S 1
▁g 1
▁qu 1
▁h 1
li 1
ta 1
▁di 1
ri 1
▁an 1
▁i 1
▁A 1
▁con 1
▁the 1
ad 1
▁en 1
ut 1
am 1
et 1
▁C 1
ing 1
ol 1
▁y 1
▁es 1
▁M 1
▁P 1
ic 1
▁D 1
el 1
tion 1
ed 1
▁I 1
▁to 1
▁L 1
▁E 1
to 1
▁se 1
▁re 1
▁que 1
▁T 1
ter 1
id 1
▁B 1
em 1
ion 1
ir 1
▁le 1
il 1
ers 1
ig 1
res 1
ce 1
▁com 1
▁and 1
ve 1
▁of 1
and 1
ul 1
▁F 1
▁pro 1
ag 1
▁par 1
ten 1
ab 1
▁G 1
▁des 1
ich 1
our 1
▁su 1
end 1
um 1
▁al 1
▁R 1
▁1 1
ou 1
▁( 1
▁th 1
▁und 1
ung 1
im 1
▁el 1
ot 1
▁2 1
▁per 1
▁et 1
ia 1
io 1
▁W 1
▁j 1
▁H 1
▁be 1
ere 1
▁N 1
▁r 1
lle 1
▁is 1
▁der 1
▁au 1
ac 1
de 1
ant 1
ón 1
▁ein 1
ente 1
▁del 1
▁die 1
▁z 1
pp 1
ation 1
▁V 1
▁so 1
ess 1
▁ne 1
▁k 1
▁for 1
st 1
ge 1
mp 1
▁il 1
▁no 1
zion 1
▁K 1
che 1
est 1
are 1
di 1
▁à 1
au 1
ff 1
se 1
.. 1
ma 1
lla 1
ne 1
ier 1
ay 1
▁che 1
do 1
hr 1
ver 1
co 1
▁on 1
ine 1
ue 1
ber 1
▁les 1
der 1
▁U 1
me 1
ca 1
ción 1
all 1
ct 1
▁J 1
▁una 1
ans 1
ass 1
▁st 1
pe 1
ment 1
ien 1
ato 1
▁los 1
ale 1
▁ch 1
▁ma 1
que 1
og 1
tiv 1
▁me 1
▁pl 1
ist 1
▁O 1
ort 1
no 1
▁mo 1
za 1
▁ha 1
▁as 1
▁ex 1
ens 1
... 1
ont 1
▁20 1
▁po 1
ib 1
▁est 1
▁si 1
▁In 1
▁lo 1
per 1
ill 1
zione 1
ck 1
▁por 1
den 1
iv 1
ach 1
ire 1
▁comp 1
és 1
▁ri 1
▁or 1
▁ac 1
ali 1
▁du 1
▁da 1
▁é 1
▁co 1
ür 1
▁las 1
▁pour 1
ith 1
chen 1
▁pr 1
ate 1
ap 1
mo 1
gen 1
eit 1
▁tr 1
ure 1
lo 1
▁at 1
▁- 1
ite 1
▁ver 1
▁fa 1
▁do 1
ub 1
▁den 1
▁son 1
▁wh 1
▁tra 1
ous 1
▁er 1
▁ser 1
▁that 1
▁para 1
du 1
ru 1
for 1
va 1
▁è 1
ran 1
▁zu 1
▁ab 1
▁im 1
▁with 1
▁man 1
ts 1
▁res 1
▁all 1
▁mit 1
ado 1
ind 1
▁it 1
▁pas 1
ann 1
ement 1
▁La 1
ly 1
ento 1
▁An 1
ost 1
mer 1
▁he 1
la 1
▁pre 1
▁ad 1
▁we 1
▁ar 1
lich 1
ud 1
▁3 1
▁cu 1
▁ent 1
vo 1
▁" 1
ici 1
▁pe 1
▁cont 1
▁te 1
tic 1
▁you 1
▁sur 1
ante 1
▁Un 1
▁dis 1
ía 1
ano 1
▁201 1
▁dé 1
▁ra 1
ando 1
und 1
cion 1
ica 1
▁ist 1
po 1
▁von 1
so 1
ata 1
ug 1
▁Le 1
con 1
enti 1
sch 1
00 1
icht 1
th 1
▁une 1
ard 1
▁“ 1
iz 1
▁sp 1
▁The 1
▁Z 1
▁non 1
▁En 1
▁auf 1
ke 1
cia 1
▁am 1
▁qui 1
▁ge 1
iss 1
ces 1
age 1
uch 1
tre 1
op 1
be 1
bi 1
▁dans 1
▁imp 1
▁Re 1
▁das 1
bre 1
▁inter 1
▁für 1
ás 1
ni 1
we 1
fer 1
▁della 1
ée 1
ina 1
▁pos 1
▁aus 1
od 1
erson 1
ari 1
▁are 1
ust 1
na 1
ins 1
▁u 1
▁pri 1
▁us 1
▁pu 1
ht 1
▁ce 1
ze 1
ura 1
▁pres 1
men 1
▁dem 1
ang 1
les 1
ons 1
▁sch 1
pr 1
rom 1
ow 1
▁sa 1
ft 1
▁gr 1
ile 1
▁cons 1
▁was 1
ori 1
▁Se 1
ili 1
ales 1
▁fin 1
▁Sch 1
▁app 1
ven 1
ada 1
iel 1
▁hab 1
urs 1
fe 1
▁car 1
era 1
par 1
ito 1
ux 1
ér 1
ord 1
▁person 1
cl 1
mente 1
ese 1
▁sich 1
ble 1
▁De 1
lic 1
ise 1
ide 1
one 1
▁4 1
ok 1
mi 1
go 1
ità 1
▁ave 1
▁wir 1
▁Es 1
▁pi 1
ita 1
▁je 1
ora 1
ome 1
pos 1
nen 1
cu 1
▁St 1
able 1
▁li 1
olo 1
▁can 1
▁: 1
▁cas 1
gu 1
gi 1
▁not 1
). 1
▁ré 1
▁plus 1
▁nicht 1
▁5 1
min 1
ico 1
ted 1
idad 1
gra 1
ction 1
tis 1
pa 1
ity 1
ors 1
▁Be 1
▁Il 1
▁Th 1
▁Pro 1
▁eine 1
ino 1
▁sh 1
tra 1
▁mar 1
out 1
▁19 1
tit 1
ben 1
ga 1
da 1
▁ques 1
hl 1
▁– 1
llo 1
ance 1
▁Die 1
▁aut 1
si 1
én 1
rit 1
▁your 1
zz 1
▁como 1
▁this 1
▁Sie 1
▁vous 1
▁auch 1
▁don 1
her 1
tes 1
ger 1
form 1
vers 1
▁Ver 1
▁Y 1
ros 1
▁avec 1
je 1
▁ou 1
▁sc 1
ign 1
amente 1
), 1
▁dur 1
▁by 1
ité 1
▁have 1
▁av 1
▁fo 1
▁Ch 1
▁ro 1
▁Al 1
ette 1
▁ob 1
▁ter 1
▁from 1
kt 1
▁Q 1
com 1
cess 1
▁vo 1
▁más 1
fic 1
ste 1
ba 1
ult 1
ond 1
ies 1
▁Ar 1
uer 1
▁gen 1
ras 1
▁sta 1
▁El 1
ui 1
▁cam 1
▁has 1
av 1
int 1
ungen 1
ner 1
ose 1
än 1
▁tro 1
▁Mar 1
ciones 1
cer 1
gli 1
▁mon 1
tive 1
▁gi 1
une 1
▁We 1
olog 1
▁pa 1
emp 1
enn 1
▁cor 1
zioni 1
ini 1
▁cl 1
▁Par 1
▁nu 1
▁dei 1
▁will 1
▁esta 1
über 1
▁reg 1
ère 1
ai 1
▁cre 1
ack 1
▁go 1
ès 1
gan 1
tig 1
ser 1
▁fe 1
▁Com 1
tions 1
ono 1
▁wer 1
▁vis 1
ations 1
use 1
ahr 1
ene 1
▁sie 1
tro 1
ute 1
cial 1
ques 1
ore 1
dad 1
pl 1
ater 1
té 1
▁wie 1
▁6 1
ana 1
▁serv 1
▁ich 1
ores 1
▁sono 1
ual 1
ario 1
uss 1
hen 1
enta 1
▁oder 1
▁vers 1
ally 1
▁come 1
tim 1
uld 1
▁dire 1
anz 1
án 1
ais 1
▁gra 1
uf 1
▁più 1
ido 1
ong 1
ero 1
▁produ 1
ak 1
ungs 1
▁mi 1
ork 1
ase 1
cont 1
jo 1
ip 1
▁prop 1
▁parti 1
hn 1
iste 1
vi 1
ence 1
endo 1
▁« 1
▁dell 1
ents 1
▁sind 1
ice 1
▁ho 1
▁tut 1
ione 1
▁cer 1
▁tu 1
anti 1
ast 1
esch 1
▁ins 1
ph 1
▁ci 1
▁über 1
▁ve 1
wer 1
etz 1
▁prof 1
▁um 1
▁Er 1
▁werden 1
▁hat 1
dos 1
bo 1
▁med 1
amo 1
▁Ne 1
▁wo 1
uy 1
▁ris 1
▁entre 1
ren 1
▁als 1
▁sal 1
art 1
▁alla 1
▁Te 1
ress 1
▁sus 1
ön 1
▁cos 1
ues 1
ré 1
▁200 1
tell 1
▁nel 1
▁bien 1
vel 1
uro 1
enza 1
▁delle 1
▁Con 1
vid 1
ola 1
▁bei 1
zi 1
▁cap 1
▁So 1
▁but 1
▁Sp 1
its 1
wn 1
ées 1
▁7 1
▁mais 1
▁op 1
vis 1
▁vi 1
ett 1
▁her 1
ede 1
▁min 1
ida 1
cht 1
tivo 1
tif 1
anno 1
ron 1
aus 1
tica 1
▁pub 1
▁vor 1
▁war 1
entes 1
▁ag 1
▁sont 1
▁Ge 1
ados 1
▁... 1
ime 1
▁bo 1
tel 1
ern 1
cip 1
▁ten 1
▁emp 1
cre 1
▁anche 1
cc 1
▁nach 1
ende 1
▁poss 1
▁dies 1
▁pass 1
▁grand 1
att 1
▁No 1
ied 1
▁col 1
▁It 1
ild 1
uto 1
mb 1
▁ele 1
▁alle 1
uen 1
▁diff 1
▁sol 1
▁8 1
vent 1
▁tout 1
hal 1
ace 1
▁10 1
ink 1
ear 1
▁out 1
anto 1
▁» 1
▁mis 1
ho 1
▁my 1
otre 1
unt 1
cri 1
ión 1
▁ess 1
ves 1
▁dass 1
▁ind 1
20 1
▁spe 1
ick 1
man 1
▁vol 1
ün 1
▁bl 1
ry 1
ple 1
cul 1
▁bes 1
▁up 1
atur 1
tern 1
alis 1
etto 1
ges 1
vor 1
ade 1
cha 1
▁exp 1
ame 1
ob 1
▁sein 1
vol 1
▁wird 1
▁eff 1
igen 1
▁He 1
ours 1
▁rec 1
if 1
mes 1
ik 1
▁cal 1
▁sin 1
zza 1
▁gro 1
▁comm 1
▁fam 1
up 1
▁ap 1
ris 1
▁ed 1
▁9 1
▁his 1
▁dal 1
▁Co 1
ible 1
▁ke 1
▁mal 1
▁Ab 1
▁more 1
ays 1
ati 1
▁parte 1
▁ass 1
▁met 1
▁nous 1
▁uti 1
ther 1
▁much 1
ants 1
itt 1
hre 1
▁einen 1
ät 1
mos 1
gio 1
▁este 1
cio 1
▁conf 1
ings 1
▁men 1
cher 1
lie 1
tiva 1
▁their 1
▁, 1
▁they 1
lis 1
aux 1
▁! 1
▁trans 1
▁nos 1
ms 1
▁one 1
▁. 1
ced 1
aut 1
▁off 1
▁may 1
▁añ 1
▁einer 1
▁vie 1
▁ges 1
▁Ma 1
▁As 1
▁gli 1
ille 1
▁Les 1
pon 1
▁qual 1
igli 1
rie 1
ara 1
iti 1
▁zum 1
ischen 1
▁fre 1
chi 1
ires 1
bli 1
▁rep 1
▁Me 1
▁kann 1
▁cent 1
▁Je 1
rat 1
▁our 1
ient 1
ight 1
▁ot 1
enden 1
cep 1
▁incl 1
▁aux 1
auf 1
iet 1
▁„ 1
▁sim 1
▁gu 1
▁Ein 1
oc 1
▁noch 1
wo 1
▁einem 1
mal 1
ique 1
llen 1
▁inf 1
▁Si 1
▁dall 1
ación 1
cor 1
▁Der 1
ivers 1
iene 1
▁kön 1
▁about 1
▁Fran 1
▁Das 1
▁seg 1
▁For 1
ück 1
tad 1
ines 1
rib 1
être 1
cis 1
car 1
ank 1
tag 1
oss 1
eren 1
▁zur 1
▁also 1
beit 1
▁bis 1
orn 1
▁Pl 1
udi 1
▁leg 1
tt 1
▁durch 1
▁pero 1
▁ren 1
oi 1
▁0 1
▁ti 1
▁Per 1
land 1
tico 1
lles 1
keit 1
▁which 1
itu 1
▁mag 1
▁ni 1
voir 1
forma 1
▁val 1
gh 1
▁tem 1
▁ca 1
000 1
ps 1
antes 1
ider 1
▁import 1
▁[ 1
▁unter 1
▁work 1
abe 1
ait 1
line 1
mar 1
▁nur 1
elt 1
titu 1
▁dist 1
▁af 1
ane 1
▁Ho 1
act 1
▁mom 1
ions 1
▁dar 1
▁Di 1
▁18 1
▁uns 1
ert 1
▁fun 1
▁who 1
▁sig 1
▁some 1
ated 1
bar 1
gram 1
▁votre 1
oria 1
▁cli 1
pu 1
amos 1
▁aber 1
▁fil 1
inter 1
▁fu 1
▁15 1
▁perm 1
ric 1
▁sy 1
▁temp 1
▁organ 1
fü 1
▁Aus 1
▁cette 1
rar 1
▁haben 1
cto 1
leg 1
onn 1
▁Qu 1
por 1
ême 1
els 1
▁form 1
▁ai 1
▁solo 1
▁fait 1
▁Mit 1
▁any 1
aliz 1
▁questo 1
uti 1
isten 1
tet 1
▁comme 1
ista 1
ambi 1
bl 1
ER 1
ör 1
▁comple 1
ws 1
▁mol 1
erv 1
als 1
éri 1
▁nom 1
▁ers 1
▁aff 1
▁Des 1
▁ste 1
▁sub 1
igh 1
esso 1
app 1
▁loc 1
▁Ad 1
▁sobre 1
ís 1
zen 1
▁act 1
▁mes 1
▁time 1
▁prin 1
ats 1
ght 1
ets 1
▁pré 1
ún 1
amento 1
▁mus 1
▁acc 1
uj 1
▁bas 1
encia 1
ss 1
▁ses 1
ange 1
▁mehr 1
▁Ro 1
▁uno 1
▁| 1
▁Gr 1
isti 1
▁mer 1
ld 1
▁nella 1
dern 1
mpre 1
▁gar 1
ating 1
gel 1
ular 1
ler 1
iert 1
▁faire 1
▁ann 1
ige 1
▁mé 1
ouve 1
ures 1
▁rela 1
ils 1
▁Mo 1
adas 1
▁Car 1
alt 1
ior 1
▁cou 1
az 1
▁This 1
ex 1
mento 1
▁wur 1
iche 1
omm 1
▁poli 1
▁super 1
ja 1
▁mat 1
▁? 1
▁bet 1
▁inst 1
ela 1
oro 1
ule 1
är 1
▁On 1
cción 1
ary 1
▁12 1
▁year 1
▁nuest 1
▁fir 1
▁Su 1
bra 1
amp 1
dic 1
ages 1
anza 1
▁können 1
pro 1
uta 1
▁essere 1
▁comun 1
▁ya 1
▁chi 1
▁ph 1
ha 1
▁most 1
lichen 1
ones 1
▁/ 1
▁contin 1
▁get 1
ani 1
qui 1
▁resp 1
▁gener 1
sp 1
gr 1
ulti 1
▁og 1
▁lie 1
get 1
▁exper 1
ona 1
imo 1
erg 1
amb 1
▁Ex 1
ché 1
▁indi 1
osa 1
▁Or 1
▁like 1
▁& 1
▁been 1
cias 1
▁bus 1
aria 1
nis 1
emos 1
▁other 1
almente 1
tique 1
▁sel 1
▁Bl 1
▁sou 1
▁dom 1
▁bu 1
▁num 1
ena 1
▁muy 1
liche 1
ctor 1
▁fr 1
unto 1
▁there 1
▁part 1
▁ihr 1
ister 1
▁na 1
fin 1
▁fra 1
▁cui 1
ON 1
anta 1
cho 1
cur 1
ive 1
tain 1
hmen 1
iento 1
▁inform 1
atto 1
▁over 1
▁if 1
▁lui 1
▁todo 1
▁contro 1
▁supp 1
▁lib 1
gt 1
▁forma 1
▁And 1
▁ta 1
▁when 1
ambién 1
▁hac 1
▁were 1
dition 1
very 1
ys 1
atz 1
teur 1
tait 1
jor 1
▁Po 1
▁br 1
▁(1 1
lé 1
vie 1
▁had 1
agen 1
▁ide 1
▁far 1
▁X 1
aten 1
anc 1
▁proble 1
▁web 1
▁même 1
▁nost 1
▁princip 1
▁pens 1
oni 1
▁would 1
ye 1
cn 1
istra 1
ments 1
201 1
posi 1
cid 1
ath 1
▁ven 1
ature 1
iter 1
▁quel 1
▁what 1
ory 1
▁secon 1
utz 1
ical 1
ek 1
▁Tra 1
ken 1
▁kno 1
ession 1
lli 1
▁2018 1
▁mod 1
▁era 1
pt 1
▁new 1
old 1
fen 1
let 1
▁weit 1
ational 1
▁site 1
▁tre 1
▁nue 1
orno 1
ates 1
▁utili 1
red 1
▁Auf 1
▁peu 1
▁très 1
ital 1
esse 1
zie 1
▁tras 1
▁Mon 1
▁due 1
atta 1
ved 1
los 1
▁pra 1
mas 1
▁just 1
▁Lo 1
▁ont 1
▁partic 1
ches 1
cou 1
orte 1
glich 1
mit 1
▁need 1
lica 1
▁Man 1
▁its 1
▁them 1
urn 1
lam 1
azione 1
▁ava 1
▁hom 1
▁aussi 1
▁30 1
▁nuo 1
gn 1
ibt 1
▁ba 1
▁11 1
▁être 1
▁situ 1
las 1
”. 1
▁sens 1
zo 1
EN 1
▁leur 1
▁Tr 1
▁mem 1
pend 1
oth 1
oso 1
ugh 1
▁sex 1
▁pod 1
iner 1
lio 1
▁dann 1
▁ev 1
ES 1
▁peut 1
▁gre 1
▁été 1
▁Bo 1
ías 1
ador 1
ople 1
▁Fre 1
▁va 1
▁Unter 1
ño 1
ommen 1
▁som 1
▁Wir 1
▁Sta 1
▁dos 1
▁into 1
▁espe 1
▁sul 1
ieren 1
▁bon 1
fica 1
ton 1
▁wenn 1
chn 1
▁traba 1
esta 1
▁viv 1
”, 1
▁conse 1
▁mil 1
gar 1
gun 1
▁Jahr 1
heit 1
▁14 1
aire 1
▁está 1
▁Am 1
", 1
▁hel 1
▁jus 1
▁Pre 1
▁posi 1
fo 1
▁primer 1
▁propri 1
▁Fra 1
▁jed 1
AN 1
▁cir 1
lev 1
▁pued 1
ument 1
▁prés 1
stru 1
zu 1
▁16 1
▁Im 1
fici 1
endre 1
tri 1
med 1
▁soci 1
cional 1
▁esc 1
pri 1
inen 1
▁bar 1
osi 1
▁nor 1
agn 1
▁sti 1
arios 1
zzo 1
▁divers 1
▁rencont 1
▁ans 1
rä 1
ender 1
conom 1
▁degli 1
▁elle 1
tal 1
unden 1
▁Los 1
▁deux 1
▁hum 1
▁informa 1
ßen 1
▁cur 1
ème 1
▁años 1
▁Ber 1
▁dalla 1
ande 1
▁oper 1
▁prov 1
▁lar 1
▁rapp 1
▁char 1
▁Wo 1
.... 1
▁look 1
pi 1
xt 1
▁mater 1
▁Fe 1
▁than 1
▁también 1
oma 1
▁sé 1
▁sor 1
osten 1
fl 1
▁sho 1
▁unser 1
uel 1
▁dev 1
▁fue 1
▁hier 1
▁13 1
▁Sa 1
▁inv 1
▁tutti 1
ische 1
▁people 1
nes 1
▁Ich 1
cts 1
port 1
mon 1
▁arri 1
▁mas 1
AR 1
pañ 1
atti 1
cta 1
otto 1
▁Au 1
ala 1
tend 1
▁colle 1
▁Nach 1
▁mun 1
▁Ste 1
ices 1
▁desde 1
▁Reg 1
▁17 1
fahr 1
▁sans 1
▁hay 1
▁ces 1
-1 1
▁lim 1
▁Do 1
etta 1
tik 1
urch 1
▁sehr 1
▁program 1
". 1
▁gio 1
▁Ce 1
▁wurde 1
▁activ 1
ideo 1
▁conta 1
day 1
▁long 1
▁puede 1
▁stud 1
assen 1
itar 1
teg 1
▁prima 1
▁she 1
▁anni 1
cun 1
▁mill 1
▁wieder 1
▁Go 1
▁nouve 1
▁thro 1
etzt 1
▁caso 1
▁doc 1
hing 1
IN 1
▁wor 1
▁soll 1
▁grande 1
ça 1
▁commun 1
▁lu 1
cause 1
▁fran 1
ily 1
▁You 1
ket 1
▁how 1
▁fl 1
▁25 1
▁hist 1
▁contra 1
geb 1
▁hanno 1
led 1
▁possib 1
asi 1
▁tie 1
▁mir 1
ites 1
▁stra 1
▁2017 1
▁Cl 1
net 1
isch 1
▁cour 1
pre 1
▁make 1
cent 1
▁only 1
▁find 1
▁online 1
ulta 1
▁Pour 1
▁condi 1
rig 1
▁tiene 1
leich 1
arn 1
atri 1
core 1
▁jour 1
▁# 1
▁cuando 1
▁Her 1
▁Por 1
eme 1
▁bel 1
fi 1
aron 1
tir 1
▁segu 1
▁propos 1
ismo 1
▁use 1
.1 1
30 1
ima 1
▁Vor 1
▁log 1
▁loro 1
des 1
▁immer 1
▁first 1
urg 1
atori 1
▁fon 1
▁Zeit 1
▁All 1
▁back 1
ott 1
▁schon 1
ep 1
bst 1
▁via 1
aba 1
▁pol 1
scha 1
▁pop 1
▁cual 1
▁To 1
▁Pa 1
▁mont 1
▁todos 1
▁siste 1
▁tous 1
▁priv 1
gal 1
▁main 1
eter 1
entre 1
▁cost 1
abil 1
▁know 1
lig 1
iness 1
das 1
▁100 1
inn 1
▁public 1
▁Wh 1
▁design 1
elle 1
col 1
bbe 1
▁every 1
äl 1
érie 1
près 1
▁fem 1
▁Et 1
▁Ja 1
▁cult 1
hm 1
utt 1
▁Sh 1
▁' 1
▁Gra 1
cil 1
▁tri 1
▁rich 1
jet 1
▁bre 1
▁trou 1
éra 1
▁viel 1
▁through 1
▁diese 1
▁Ges 1
tement 1
▁fut 1
▁hacer 1
äch 1
▁well 1
reich 1
rag 1
▁because 1
mpo 1
!! 1
▁pare 1
▁port 1
▁place 1
▁sua 1
ks 1
▁ger 1
ße 1
▁very 1
▁bene 1
▁Med 1
ccess 1
▁best 1
oci 1
öglich 1
▁hasta 1
▁pag 1
▁profession 1
fr 1
▁plan 1
▁neces 1
▁Da 1
▁int 1
▁end 1
uli 1
▁casa 1
▁zw 1
▁fer 1
rei 1
▁Inter 1
▁ir 1
ral 1
▁molto 1
▁Intern 1
▁If 1
bil 1
▁199 1
sche 1
ely 1
ution 1
▁gut 1
▁han 1
▁sempre 1
ähr 1
unk 1
▁Esta 1
▁Fl 1
▁os 1
▁requ 1
▁Lu 1
idades 1
▁Min 1
▁bef 1
▁sia 1
▁experien 1
aggio 1
▁orig 1
▁class 1
▁gran 1
▁mejor 1
▁ben 1
ters 1
▁¿ 1
▁1. 1
uo 1
king 1
eld 1
▁Cas 1
miento 1
▁24 1
▁down 1
▁Sal 1
ables 1
urop 1
▁beau 1
▁questa 1
ix 1
ume 1
▁senti 1
▁tal 1
▁present 1
tens 1
▁post 1
▁vom 1
wie 1
imento 1
ption 1
ppo 1
50 1
ough 1
▁these 1
IC 1
üt 1
OR 1
▁durante 1
▁pes 1
val 1
▁rel 1
AL 1
ller 1
tem 1
cas 1
ude 1
gl 1
▁nombre 1
▁2016 1
▁Gen 1
▁lavor 1
▁Bar 1
▁cha 1
hne 1
ités 1
til 1
enda 1
arbeit 1
▁help 1
stem 1
▁respons 1
▁play 1
In 1
cle 1
▁stato 1
itz 1
entro 1
aff 1
rer 1
▁appro 1
ense 1
▁donde 1
ful 1
▁tutto 1
ín 1
▁pic 1
tare 1
▁gibt 1
atter 1
▁hand 1
unque 1
▁speci 1
▁sto 1
ctos 1
amiento 1
▁Is 1
hnen 1
▁temps 1
▁Jo 1
▁anti 1
▁algun 1
▁show 1
ará 1
ahl 1
ish 1
ial 1
▁habe 1
ree 1
▁momento 1
▁ref 1
▁base 1
eln 1
▁tanto 1
fach 1
orio 1
kl 1
embre 1
cora 1
▁50 1
▁suo 1
▁star 1
▁two 1
▁rés 1
yp 1
▁gew 1
▁notre 1
hren 1
▁può 1
ements 1
▁San 1
AT 1
▁Pri 1
▁prote 1
zeit 1
part 1
ministra 1
▁; 1
indi 1
▁str 1
▁Ha 1
adre 1
▁conten 1
▁sm 1
zia 1
bili 1
▁dam 1
▁liv 1
▁dro 1
iger 1
▁Ins 1
iones 1
urope 1
▁after 1
▁individ 1
bs 1
ég 1
▁good 1
▁modo 1
round 1
tivi 1
clus 1
atu 1
ission 1
ware 1
▁ali 1
idos 1
fa 1
▁cada 1
▁ay 1
▁Ra 1
ards 1
▁sar 1
▁natur 1
tin 1
▁vez 1
IS 1
ving 1
▁continu 1
▁set 1
ances 1
▁sing 1
AS 1
ggi 1
iment 1
éd 1
fol 1
ares 1
▁could 1
temp 1
cie 1
▁US 1
▁At 1
▁Kon 1
ortun 1
ret 1
▁opp 1
▁comb 1
▁dou 1
▁lug 1
▁process 1
▁many 1
▁cri 1
▁way 1
bers 1
▁senza 1
ama 1
▁high 1
▁coll 1
▁Um 1
▁x 1
otos 1
▁ça 1
bile 1
▁Bes 1
▁differ 1
▁ihre 1
ots 1
ump 1
inder 1
▁Las 1
▁Vers 1
▁buen 1
icher 1
▁famili 1
▁gl 1
▁pers 1
ères 1
▁prod 1
▁esper 1
▁real 1
ian 1
ctiv 1
▁tit 1
icio 1
▁Ger 1
▁así 1
▁sab 1
▁cro 1
▁té 1
▁years 1
▁deb 1
▁mie 1
▁porque 1
sen 1
▁vos 1
uest 1
▁sulla 1
▁said 1
atore 1
arse 1
▁etw 1
▁ét 1
▁App 1
arro 1
reg 1
▁Univers 1
▁21 1
iden 1
▁poco 1
▁where 1
rent 1
▁bro 1
▁2015 1
▁tecn 1
vre 1
duc 1
▁dieser 1
änd 1
▁gru 1
▁cat 1
br 1
▁see 1
▁read 1
▁cin 1
▁tiempo 1
▁fare 1
▁mich 1
▁social 1
▁Chr 1
▁add 1
▁even 1
▁Sy 1
▁Ü 1
atura 1
fall 1
▁cré 1
asse 1
ald 1
cir 1
▁ogni 1
▁bra 1
elo 1
vir 1
rir 1
▁Mais 1
▁suis 1
quier 1
ícul 1
ties 1
sten 1
.0 1
lex 1
▁Non 1
▁ju 1
▁then 1
▁liber 1
▁dispon 1
▁did 1
▁ja 1
▁esp 1
udad 1
▁such 1
hip 1
dio 1
▁* 1
omo 1
▁$ 1
ouse 1
met 1
utsch 1
book 1
ctions 1
▁now 1
alle 1
ison 1
omb 1
halten 1
▁encore 1
cken 1
▁‘ 1
vern 1
unci 1
▁Br 1
▁fac 1
▁Wer 1
▁signi 1
▁tempo 1
▁hor 1
orts 1
ppe 1
▁inves 1
▁Pr 1
▁DE 1
▁Fo 1
▁mor 1
OS 1
puis 1
ios 1
▁Pe 1
▁Una 1
▁Ter 1
ioni 1
eder 1
▁jo 1
▁día 1
▁def 1
▁Ph 1
▁foto 1
▁anim 1
▁consider 1
llos 1
adores 1
▁simple 1
▁sistema 1
insi 1
▁Arbeit 1
▁includ 1
▁ah 1
▁video 1
▁premi 1
▁donc 1
▁año 1
ember 1
wei 1
elf 1
cted 1
▁Mus 1
▁ganz 1
dem 1
llow 1
etti 1
▁realiz 1
▁constru 1
▁ol 1
▁organiz 1
▁him 1
ilidad 1
▁Cons 1
▁gegen 1
aro 1
zación 1
▁etc 1
atos 1
uso 1
▁gratu 1
zionale 1
▁était 1
▁pal 1
▁origin 1
ían 1
teil 1
isse 1
tigen 1
▁tes 1
2. 1
ität 1
▁Du 1
tamente 1
▁pou 1
▁Und 1
▁Gesch 1
üss 1
▁trava 1
10 1
way 1
führ 1
▁should 1
▁perfe 1
▁mass 1
▁service 1
enz 1
▁iden 1
▁emb 1
uter 1
▁eng 1
▁Gu 1
▁nei 1
▁home 1
chte 1
cy 1
▁tipo 1
▁vari 1
▁vida 1
▁cho 1
rid 1
▁rencontre 1
lement 1
▁où 1
▁poten 1
▁bere 1
isc 1
ffe 1
piel 1
▁offer 1
▁inte 1
▁stand 1
ingen 1
▁great 1
ander 1
▁fond 1
úl 1
▁2014 1
bor 1
▁success 1
▁det 1
ribu 1
chie 1
gain 1
▁disc 1
cen 1
▁Land 1
inge 1
▁dopo 1
▁Fin 1
2, 1
erst 1
una 1
▁weiter 1
other 1
▁imm 1
▁empres 1
▁final 1
unta 1
ager 1
▁disposi 1
tige 1
▁film 1
tadt 1
lung 1
▁Aut 1
teurs 1
▁ple 1
ños 1
▁fois 1
velop 1
cco 1
▁incre 1
ool 1
▁nun 1
war 1
▁own 1
▁Produ 1
IT 1
agement 1
▁fuer 1
▁gén 1
vere 1
▁perché 1
▁Na 1
tific 1
▁vic 1
▁gel 1
▁ese 1
▁think 1
// 1
cel 1
▁keine 1
su 1
▁Mens 1
▁let 1
▁caus 1
▁Serv 1
▁week 1
▁day 1
▁lang 1
xim 1
utto 1
tie 1
erci 1
▁descri 1
▁Ihre 1
alth 1
usam 1
▁prem 1
izi 1
gg 1
ars 1
kte 1
▁information 1
▁respe 1
▁artic 1
▁wel 1
▁prog 1
▁want 1
▁reali 1
▁art 1
▁New 1
▁nell 1
tere 1
formation 1
▁yo 1
hand 1
▁migli 1
▁Cor 1
jos 1
▁business 1
▁sci 1
▁live 1
▁blo 1
▁Res 1
▁personas 1
▁file 1
▁Ser 1
▁Person 1
uesto 1
fts 1
ker 1
▁kle 1
otti 1
▁fatto 1
:// 1
lect 1
idente 1
▁pie 1
▁blog 1
▁tele 1
schaft 1
▁quando 1
enne 1
▁Che 1
lin 1
▁quello 1
▁Vous 1
ty 1
ament 1
▁Pres 1
▁né 1
▁made 1
▁book 1
▁concer 1
▁indust 1
ams 1
AC 1
any 1
mm 1
anos 1
anda 1
▁eines 1
▁acqu 1
▁sowie 1
rá 1
▁tien 1
▁persona 1
vil 1
▁Hand 1
wick 1
emás 1
▁dove 1
▁necess 1
▁moment 1
▁einfach 1
zzi 1
▁hace 1
▁Spiel 1
▁poi 1
▁sous 1
▁oc 1
omen 1
▁life 1
▁here 1
▁itali 1
▁equ 1
▁altri 1
▁Cont 1
▁sign 1
uten 1
▁world 1
uc 1
▁access 1
chten 1
▁mismo 1
▁perio 1
▁abs 1
▁att 1
crit 1
▁But 1
icos 1
▁bek 1
▁quali 1
ness 1
bes 1
▁ancora 1
▁importante 1
arch 1
ét 1
▁free 1
▁extra 1
▁reci 1
▁ret 1
ident 1
lar 1
▁mayor 1
." 1
ffen 1
▁decis 1
igne 1
lia 1
▁sac 1
▁being 1
entlich 1
hoto 1
abor 1
idas 1
▁vita 1
▁lead 1
ruct 1
istas 1
▁attra 1
ête 1
.” 1
hlen 1
comp 1
▁Internet 1
▁again 1
▁40 1
▁país 1
▁cosa 1
▁avait 1
vier 1
▁pat 1
utes 1
ctive 1
▁punto 1
▁Can 1
acht 1
▁ohne 1
▁Ital 1
...] 1
cks 1
aires 1
▁top 1
▁(2 1
▁used 1
chnolog 1
▁otros 1
berg 1
▁ing 1
chaft 1
chni 1
▁lleg 1
ises 1
▁beg 1
▁sera 1
asser 1
▁France 1
uego 1
▁Son 1
ends 1
▁muss 1
anci 1
▁Dis 1
▁cr 1
▁take 1
▁permet 1
▁2013 1
▁Ihr 1
.000 1
sy 1
▁vra 1
▁Gar 1
ucht 1
▁camp 1
via 1
arte 1
▁local 1
oles 1
orta 1
▁personal 1
wend 1
▁point 1
lly 1
▁ainsi 1
nehmen 1
▁tour 1
tier 1
▁lors 1
▁deter 1
▁prob 1
▁ciudad 1
less 1
▁così 1
., 1
▁compr 1
▁effe 1
▁sec 1
cin 1
▁tom 1
▁visit 1
ather 1
▁ej 1
▁dont 1
▁before 1
tività 1
▁trav 1
▁Nous 1
▁does 1
▁proprio 1
▁sk 1
▁ric 1
load 1
▁mess 1
hed 1
▁monde 1
menti 1
▁intern 1
vin 1
isto 1
▁obje 1
hi 1
unter 1
▁recon 1
come 1
▁entra 1
▁those 1
gs 1
soci 1
▁+ 1
▁data 1
tici 1
ften 1
▁total 1
▁Sin 1
osp 1
edi 1
▁services 1
▁line 1
izio 1
fra 1
▁amp 1
ited 1
▁selbst 1
anze 1
▁solu 1
ujours 1
zar 1
▁toute 1
▁moins 1
▁econom 1
▁dise 1
bres 1
▁vac 1
▁mundo 1
äh 1
antas 1
gesch 1
rica 1
▁chang 1
▁lavoro 1
abei 1
▁question 1
ppen 1
▁Af 1
usammen 1
▁pan 1
ween 1
uts 1
ining 1
▁avant 1
▁dav 1
▁toujours 1
öff 1
1. 1
▁beim 1
An 1
tiques 1
eres 1
▁rég 1
▁dra 1
▁23 1
▁él 1
▁enf 1
▁modi 1
iten 1
▁corre 1
▁Mil 1
▁right 1
gent 1
▁nelle 1
work 1
▁aller 1
illes 1
ticas 1
▁favor 1
▁úl 1
tellt 1
ierung 1
▁red 1
▁difer 1
▁Est 1
imm 1
▁Bet 1
▁esto 1
tellen 1
▁merc 1
blica 1
ña 1
1, 1
▁Une 1
▁provid 1
▁Gi 1
ames 1
▁Don 1
▁Col 1
▁2. 1
ös 1
ibil 1
▁alors 1
opp 1
▁sco 1
▁sem 1
jar 1
unde 1
rà 1
▁autor 1
▁ange 1
zt 1
▁depuis 1
osto 1
▁mai 1
▁leurs 1
▁tar 1
▁están 1
▁develop 1
▁dig 1
UR 1
rait 1
ulo 1
ogra 1
▁cla 1
▁under 1
weise 1
ave 1
chs 1
tima 1
▁desarro 1
▁après 1
ogle 1
amen 1
▁Li 1
▁fri 1
uelle 1
▁gesch 1
bens 1
lä 1
▁Mal 1
▁tend 1
ancia 1
▁encont 1
▁— 1
iva 1
▁diesem 1
abile 1
▁mucho 1
table 1
ason 1
llement 1
ole 1
▁tener 1
rea 1
igkeit 1
▁ze 1
▁actu 1
▁Ba 1
▁quanto 1
ross 1
ula 1
ktion 1
isation 1
▁fact 1
eno 1
▁bie 1
org 1
icas 1
mbre 1
▁bou 1
▁avoir 1
▁soit 1
olare 1
ria 1
▁tan 1
▁encu 1
▁really 1
ßer 1
▁sele 1
▁[...] 1
tage 1
▁petit 1
▁four 1
▁mondo 1
ator 1
▁siempre 1
▁eso 1
▁var 1
▁Gro 1
ccas 1
▁recom 1
▁rend 1
▁etwas 1
▁Ob 1
▁incont 1
▁htt 1
dit 1
timm 1
▁quelques 1
▁22 1
ogo 1
▁Sex 1
▁anal 1
▁hatte 1
▁Spe 1
coup 1
ichts 1
▁commer 1
▁trabajo 1
ceso 1
▁sea 1
▁wen 1
jour 1
▁market 1
▁égal 1
▁ord 1
▁pay 1
▁There 1
▁contre 1
iera 1
lob 1
fil 1
▁cle 1
▁hi 1
ward 1
▁tur 1
▁Dies 1
▁Vo 1
▁interess 1
▁id 1
▁viene 1
pués 1
aden 1
▁utilis 1
▁Para 1
▁enti 1
▁vend 1
iare 1
biamo 1
ias 1
▁Für 1
cept 1
▁applic 1
▁quien 1
▁each 1
▁fig 1
▁perform 1
été 1
▁ber 1
▁Fr 1
▁rece 1
▁vin 1
▁rap 1
▁seine 1
▁Elle 1
▁equi 1
▁centro 1
▁care 1
▁Mi 1
▁donne 1
quer 1
bas 1
▁cuenta 1
▁univers 1
▁Amer 1
ateg 1
tation 1
60 1
pres 1
▁edi 1
iens 1
▁termin 1
▁Zu 1
▁Menschen 1
ression 1
▁perd 1
▁Bei 1
tisch 1
Un 1
▁anderen 1
AM 1
▁while 1
▁198 1
▁jou 1
arsi 1
▁Cu 1
tivos 1
ietà 1
▁cela 1
ious 1
▁face 1
▁jug 1
▁peti 1
▁consum 1
▁quand 1
ustom 1
sh 1
▁cualquier 1
ivo 1
▁già 1
▁% 1
ôt 1
▁également 1
▁fine 1
▁moi 1
vano 1
▁color 1
▁llev 1
▁dés 1
▁ambi 1
▁puis 1
▁qued 1
▁tratta 1
▁lugar 1
▁ur 1
▁Mad 1
RE 1
ody 1
▁comment 1
▁repres 1
pond 1
igt 1
mail 1
▁Was 1
irt 1
▁dim 1
ands 1
atte 1
▁Val 1
▁ils 1
▁donn 1
▁interna 1
▁around 1
gua 1
▁faci 1
cell 1
eri 1
▁Art 1
▁Wenn 1
▁Ke 1
fon 1
kes 1
äs 1
iß 1
▁sour 1
ype 1
ús 1
▁28 1
▁pon 1
▁deli 1
▁event 1
▁mov 1
▁Deutsch 1
▁enc 1
▁possible 1
ichte 1
pf 1
▁eas 1
ruck 1
▁cambi 1
ban 1
▁zwei 1
▁Ent 1
▁á 1
▁tak 1
▁fü 1
▁alc 1
uros 1
▁nov 1
aller 1
ration 1
▁fi 1
ua 1
▁menos 1
▁prepar 1
terna 1
▁otro 1
geben 1
yn 1
▁toutes 1
▁muj 1
▁viol 1
▁bin 1
aggi 1
▁certa 1
▁cher 1
▁mö 1
▁trop 1
▁différ 1
ordin 1
▁1, 1
▁resta 1
oper 1
▁gem 1
▁test 1
uesta 1
/1 1
ube 1
agli 1
▁có 1
▁between 1
orth 1
tical 1
ain 1
iso 1
▁pot 1
aces 1
▁quindi 1
5, 1
ko 1
▁nuestro 1
rum 1
ways 1
▁media 1
▁follow 1
nal 1
▁autres 1
▁last 1
▁algo 1
▁27 1
uses 1
▁quella 1
▁komm 1
▁appar 1
▁child 1
▁indic 1
ject 1
äd 1
▁fab 1
▁still 1
▁sarà 1
▁sido 1
lu 1
bles 1
▁Daten 1
ftware 1
▁Dire 1
▁partir 1
cos 1
reib 1
OM 1
▁important 1
atch 1
issen 1
▁Lie 1
▁love 1
▁damit 1
▁conos 1
chio 1
▁aver 1
▁Ind 1
▁energ 1
ying 1
▁cele 1
cup 1
▁faut 1
orie 1
▁sic 1
bere 1
▁repr 1
▁flo 1
▁They 1
▁Teil 1
▁different 1
▁same 1
▁fas 1
▁Que 1
▁pur 1
can 1
9, 1
ences 1
TE 1
▁toda 1
▁beaucoup 1
▁photo 1
ava 1
idi 1
vare 1
ling 1
▁rom 1
fre 1
ittle 1
uale 1
▁finden 1
eros 1
▁26 1
bt 1
▁cit 1
▁Mer 1
▁lot 1
AD 1
▁machen 1
▁dai 1
emble 1
▁Über 1
▁Dans 1
▁elect 1
OL 1
acter 1
ols 1
ilt 1
▁poder 1
▁group 1
immer 1
yle 1
▁llam 1
▁Ju 1
gur 1
▁atten 1
▁abb 1
venir 1
▁control 1
ball 1
▁both 1
▁bit 1
och 1
▁60 1
vert 1
ics 1
▁là 1
▁Web 1
▁estos 1
▁state 1
irl 1
▁Stra 1
▁contr 1
▁dit 1
nel 1
▁pap 1
blico 1
▁found 1
▁Fer 1
icación 1
▁ofre 1
tore 1
▁Jahren 1
▁pays 1
▁She 1
▁alles 1
▁déb 1
▁short 1
amm 1
halb 1
▁pueden 1
▁Ur 1
▁Comp 1
paña 1
▁ayud 1
view 1
▁ton 1
rier 1
eng 1
ya 1
▁presente 1
▁doch 1
▁volta 1
ünd 1
inas 1
ólo 1
▁mode 1
orm 1
lier 1
▁primo 1
▁anno 1
ional 1
▁suiv 1
La 1
▁Gre 1
atro 1
▁serie 1
▁particip 1
40 1
▁tres 1
▁información 1
ffici 1
▁fund 1
lique 1
▁Tag 1
▁moder 1
ierno 1
▁tor 1
▁Comm 1
▁count 1
▁tutte 1
gere 1
duca 1
▁lí 1
ror 1
▁going 1
▁fino 1
ka 1
▁bal 1
▁éta 1
▁geht 1
ält 1
▁rest 1
▁promo 1
ental 1
▁II 1
acc 1
▁ore 1
▁persone 1
▁sei 1
by 1
arm 1
▁ban 1
▁san 1
▁big 1
▁Europ 1
▁nostro 1
▁Fil 1
▁Cam 1
▁Grund 1
▁conna 1
tische 1
▁proye 1
▁cab 1
▁cm 1
▁todas 1
bed 1
▁hin 1
ION 1
ría 1
▁profes 1
▁hal 1
▁nuestra 1
read 1
cret 1
allo 1
▁cul 1
▁refer 1
/201 1
hol 1
isi 1
qué 1
tice 1
▁Kinder 1
cra 1
-2 1
▁Gener 1
ibile 1
▁record 1
▁lav 1
▁sito 1
▁dalle 1
▁table 1
▁alcun 1
9. 1
▁Bas 1
▁viele 1
ieurs 1
llas 1
▁fol 1
▁inno 1
▁nuevo 1
lage 1
ffer 1
▁Imp 1
haus 1
▁> 1
fs 1
ilable 1
▁run 1
▁second 1
innen 1
▁camb 1
▁vit 1
yer 1
ago 1
isce 1
▁pú 1
lau 1
▁jetzt 1
ensa 1
bert 1
▁voir 1
▁polí 1
▁2010 1
ateur 1
cidad 1
yo 1
▁say 1
bau 1
zent 1
▁Wie 1
bel 1
▁support 1
▁Poli 1
▁trat 1
▁Google 1
iele 1
▁too 1
▁tim 1
ED 1
zw 1
▁multi 1
▁meille 1
▁pia 1
lid 1
izz 1
blic 1
imiento 1
stra 1
▁dating 1
zeich 1
▁rem 1
▁raga 1
▁dere 1
▁aggi 1
▁problema 1
▁Ihnen 1
▁belie 1
▁dedic 1
enen 1
▁• 1
enter 1
▁sue 1
▁autre 1
▁inten 1
usta 1
▁Tor 1
IL 1
▁cand 1
▁using 1
▁Tro 1
▁Eine 1
▁medi 1
▁Bre 1
ibles 1
▁ru 1
ticos 1
▁Vi 1
undes 1
▁start 1
▁zona 1
▁Cer 1
▁seit 1
fico 1
▁einz 1
umento 1
icios 1
▁nota 1
▁neue 1
▁sent 1
cios 1
▁proced 1
time 1
af 1
▁Auch 1
▁system 1
▁cel 1
jà 1
ield 1
tr 1
3, 1
essa 1
ural 1
▁em 1
▁schne 1
EL 1
▁É 1
▁jam 1
wing 1
under 1
▁risp 1
▁sag 1
ologie 1
▁compar 1
ints 1
▁ill 1
▁writ 1
isen 1
▁Fam 1
ulation 1
▁conven 1
bild 1
terior 1
▁Italia 1
▁materi 1
orni 1
▁gleich 1
▁manif 1
richt 1
alla 1
▁territ 1
cere 1
▁Mas 1
▁nature 1
▁Eng 1
ged 1
▁ble 1
hö 1
uls 1
ichtig 1
▁Pero 1
▁antes 1
ids 1
chos 1
uno 1
▁Bro 1
▁quale 1
▁wurden 1
▁usu 1
▁había 1
uge 1
▁Pal 1
uß 1
▁rit 1
▁pues 1
▁chez 1
▁Cap 1
lag 1
▁días 1
▁feel 1
▁nuovo 1
indo 1
▁recher 1
▁manera 1
prise 1
▁Ben 1
▁redu 1
8, 1
▁rac 1
▁Este 1
▁dri 1
5. 1
▁quo 1
ittà 1
▁semb 1
▁wür 1
chts 1
▁civ 1
▁custom 1
▁fur 1
▁zwischen 1
était 1
▁qué 1
▁desc 1
▁prev 1
▁fal 1
▁lung 1
▁fort 1
thing 1
atür 1
▁call 1
ules 1
heim 1
▁ricer 1
▁interes 1
ptem 1
dis 1
▁guer 1
▁sondern 1
timo 1
itter 1
▁ang 1
▁Ci 1
4, 1
▁giorno 1
▁few 1
▁bri 1
▁My 1
▁Nov 1
gono 1
▁Op 1
▁defin 1
tout 1
▁ens 1
entos 1
▁stata 1
rad 1
▁oltre 1
cono 1
tiche 1
▁Ko 1
▁sotto 1
▁primera 1
▁Diese 1
▁esa 1
▁things 1
▁atta 1
tives 1
rez 1
▁travail 1
▁consid 1
▁medio 1
▁ahora 1
▁open 1
emplo 1
▁team 1
▁bed 1
▁manten 1
▁page 1
ID 1
▁lassen 1
▁libro 1
▁envir 1
▁siti 1
tiss 1
unes 1
ism 1
▁aqu 1
▁garanti 1
▁tot 1
itos 1
hör 1
▁después 1
▁Dr 1
mine 1
▁link 1
izza 1
äre 1
ác 1
▁Prof 1
▁Kar 1
▁197 1
ließ 1
▁possibil 1
▁waren 1
▁estar 1
uali 1
van 1
▁través 1
iques 1
▁km 1
▁Pu 1
ivel 1
êt 1
arly 1
IA 1
cke 1
aben 1
▁without 1
▁tradi 1
▁general 1
▁belle 1
▁déjà 1
gas 1
▁spé 1
▁Paris 1
ET 1
▁Stadt 1
ities 1
▁Fahr 1
▁diret 1
▁din 1
ío 1
arlo 1
aud 1
mittel 1
▁learn 1
▁little 1
ww 1
▁tienen 1
▁giv 1
▁sólo 1
3. 1
▁otra 1
▁Haus 1
weit 1
▁ante 1
iller 1
▁music 1
▁possono 1
▁emplo 1
ired 1
▁premier 1
▁hecho 1
▁reco 1
esser 1
▁disp 1
▁uso 1
vas 1
éta 1
stand 1
▁possibile 1
▁mano 1
▁cris 1
üssen 1
▁bi 1
inte 1
▁dif 1
▁aliment 1
▁hard 1
▁Char 1
▁Fir 1
▁nego 1
▁May 1
▁€ 1
essen 1
▁Deutschland 1
zio 1
▁stesso 1
▁oggi 1
▁Europe 1
▁Met 1
gend 1
▁Cette 1
▁condu 1
▁terra 1
▁2012 1
kon 1
80 1
.) 1
fort 1
▁gente 1
▁secondo 1
▁health 1
erse 1
▁questi 1
▁unsere 1
▁Face 1
resse 1
▁conne 1
▁gestion 1
▁available 1
este 1
▁Bu 1
▁Pub 1
▁dello 1
bri 1
mina 1
▁pend 1
▁case 1
▁Welt 1
jes 1
▁fonction 1
volu 1
etting 1
▁dabei 1
▁casi 1
▁personne 1
für 1
urz 1
▁Information 1
alità 1
▁ulti 1
fte 1
wir 1
▁including 1
tura 1
▁dati 1
▁three 1
▁facil 1
▁especi 1
▁during 1
burg 1
▁Trans 1
cé 1
▁decir 1
esti 1
▁prom 1
estiv 1
usto 1
ething 1
▁personnes 1
▁3. 1
6, 1
zzare 1
▁Far 1
▁month 1
▁chaque 1
phone 1
udio 1
onder 1
cker 1
tischen 1
▁inc 1
halt 1
orto 1
99 1
▁arch 1
oli 1
DF 1
tics 1
graf 1
▁school 1
▁offic 1
agra 1
7, 1
▁presenta 1
▁Kom 1
▁must 1
voc 1
serv 1
▁Euro 1
▁vu 1
▁bereits 1
-- 1
▁webs 1
▁confer 1
▁autom 1
▁fall 1
▁mois 1
▁certain 1
agne 1
▁partie 1
jas 1
▁letz 1
▁cours 1
4. 1
▁recu 1
▁Jahre 1
cido 1
▁gan 1
▁konn 1
▁kom 1
▁Bus 1
▁dice 1
▁experience 1
▁sure 1
▁deve 1
▁rien 1
▁décou 1
▁Sur 1
▁sino 1
mann 1
▁otras 1
colo 1
▁Bon 1
▁always 1
▁pron 1
▁génér 1
▁area 1
▁family 1
enci 1
▁dieses 1
▁voy 1
uras 1
▁unos 1
óg 1
▁acco 1
▁sup 1
▁Dé 1
▁andere 1
▁Cal 1
▁Bere 1
ilo 1
hlt 1
▁cono 1
▁exam 1
ception 1
itet 1
▁When 1
▁giorni 1
▁type 1
▁War 1
▁resulta 1
▁power 1
Ar 1
▁Aber 1
enze 1
▁idea 1
▁particular 1
cita 1
rich 1
▁ellos 1
▁eing 1
▁opera 1
www 1
vero 1
▁water 1
▁porta 1
▁internet 1
▁hoy 1
iser 1
▁ved 1
▁destin 1
▁Ac 1
▁pati 1
The 1
▁Sk 1
osta 1
▁pen 1
issance 1
US 1
▁iss 1
▁ersten 1
▁large 1
▁semp 1
12 1
▁prix 1
istes 1
▁Mich 1
oud 1
▁inde 1
velopp 1
▁seule 1
abora 1
imos 1
▁dentro 1
▁seiner 1
óm 1
wever 1
▁plusieurs 1
▁erst 1
▁retro 1
▁peque 1
▁aunque 1
▁noi 1
▁number 1
▁build 1
▁beso 1
▁technolog 1
ums 1
▁especial 1
▁Ti 1
vé 1
self 1
▁Dan 1
peti 1
ories 1
▁réalis 1
▁normal 1
Re 1
▁mot 1
glio 1
▁emo 1
▁provin 1
hme 1
▁jusqu 1
▁Hier 1
▁efe 1
▁Vol 1
forme 1
pub 1
gew 1
cina 1
▁company 1
▁grandes 1
verso 1
luss 1
▁Ag 1
idé 1
▁allow 1
▁nada 1
aufen 1
▁IN 1
▁intro 1
▁better 1
▁net 1
maz 1
eron 1
ierte 1
gung 1
▁Uhr 1
▁prac 1
vilu 1
▁Mor 1
▁Stre 1
▁vista 1
öglichkeit 1
8. 1
▁associ 1
irs 1
▁Bild 1
oney 1
▁determin 1
▁partici 1
▁déc 1
ently 1
ez 1
lass 1
ienza 1
▁Ö 1
lice 1
▁suite 1
▁something 1
▁nivel 1
▁Form 1
▁Schw 1
bur 1
▁Eins 1
▁Ed 1
tifs 1
enten 1
▁dép 1
stell 1
licher 1
▁espa 1
▁Dar 1
▁Seit 1
ester 1
▁nut 1
zeug 1
▁disco 1
gos 1
asso 1
▁absol 1
▁bamb 1
▁van 1
▁progra 1
▁got 1
▁quar 1
▁presidente 1
▁città 1
▁impro 1
▁full 1
▁conoci 1
▁Online 1
▁press 1
▁möglich 1
▁auto 1
lagen 1
▁denn 1
▁actual 1
char 1
▁Hotel 1
▁Gew 1
cus 1
iglia 1
200 1
▁eig 1
▁Mag 1
the 1
ared 1
▁obten 1
▁zurück 1
hor 1
abili 1
▁order 1
yl 1
▁¡ 1
ología 1
EC 1
ensch 1
▁jours 1
icro 1
▁femme 1
▁Mé 1
ding 1
▁Cre 1
▁restaur 1
vole 1
iamo 1
▁cra 1
▁verb 1
▁allem 1
▁cet 1
igo 1
imp 1
amt 1
ira 1
▁mio 1
▁estado 1
▁derni 1
▁porno 1
ades 1
▁maison 1
irm 1
sa 1
olar 1
atten 1
▁coup 1
▁pun 1
▁apro 1
pping 1
entra 1
▁mein 1
▁agli 1
ican 1
▁embar 1
▁glob 1
annt 1
autres 1
▁Ak 1
▁potre 1
viv 1
▁never 1
▁prend 1
▁With 1
▁80 1
RO 1
ster 1
▁cómo 1
▁Super 1
▁unserer 1
▁nie 1
oren 1
▁dep 1
▁Nel 1
ätz 1
aille 1
▁keep 1
▁nostra 1
▁heute 1
▁ries 1
▁müssen 1
▁sil 1
▁prefer 1
▁sollte 1
▁put 1
▁beste 1
cole 1
▁labor 1
▁game 1
ney 1
▁artis 1
upe 1
▁direct 1
▁Facebook 1
▁consegu 1
tado 1
lick 1
▁tip 1
▁another 1
éli 1
▁présent 1
▁Sel 1
▁capac 1
änder 1
entemente 1
▁quer 1
▁Fall 1
uve 1
▁Tod 1
▁dr 1
▁Pas 1
▁organis 1
▁cook 1
ardo 1
▁altre 1
▁tas 1
▁= 1
▁soc 1
▁Dur 1
hält 1
▁habit 1
gno 1
icip 1
▁single 1
▁typ 1
▁estas 1
▁head 1
▁besch 1
▁Den 1
▁corres 1
▁room 1
hui 1
▁31 1
▁cru 1
▁Bau 1
▁», 1
▁giorn 1
hin 1
▁special 1
ril 1
6. 1
iendo 1
▁gratis 1
ène 1
▁install 1
own 1
/0 1
▁provide 1
▁Har 1
▁level 1
zzato 1
▁fais 1
folg 1
inos 1
vece 1
▁además 1
▁dov 1
lling 1
▁könn 1
▁might 1
▁amb 1
▁première 1
▁small 1
gleich 1
▁asp 1
▁neuen 1
ined 1
atures 1
▁lle 1
hres 1
▁doit 1
tist 1
fahren 1
▁jamais 1
ides 1
▁2, 1
7. 1
». 1
▁http 1
▁Qual 1
▁Gru 1
tera 1
ieme 1
gna 1
▁zusammen 1
atürlich 1
ird 1
▁tema 1
▁datos 1
▁Ang 1
:00 1
▁afin 1
▁debe 1
▁allen 1
nung 1
▁nav 1
ág 1
aco 1
▁able 1
uff 1
▁señ 1
▁fast 1
▁cond 1
angen 1
▁moy 1
cal 1
▁concern 1
▁adap 1
ema 1
ispiel 1
Le 1
▁within 1
öl 1
▁Fa 1
usch 1
▁club 1
tz 1
▁John 1
▁Aug 1
▁visto 1
chieden 1
▁give 1
▁Design 1
▁suoi 1
emein 1
▁candid 1
▁· 1
▁next 1
bero 1
▁Roma 1
▁dir 1
ährend 1
iglio 1
▁course 1
▁change 1
▁estudi 1
wh 1
▁Emp 1
▁Dem 1
▁cop 1
▁Bundes 1
▁amo 1
▁vost 1
▁impres 1
▁TV 1
▁proper 1
▁tran 1
êtes 1
▁dazu 1
▁svilu 1
itare 1
itori 1
▁air 1
amer 1
▁nouveau 1
▁Dav 1
ouvez 1
▁evid 1
▁categ 1
pra 1
gest 1
▁abbiamo 1
▁será 1
▁Ze 1
▁cerca 1
▁ún 1
action 1
▁since 1
▁2011 1
▁pasado 1
▁diffic 1
ogen 1
AP 1
▁weil 1
▁vier 1
corso 1
▁ligne 1
▁tex 1
En 1
▁cell 1
▁One 1
▁) 1
▁effet 1
▁développ 1
▁aper 1
iero 1
▁reli 1
unkt 1
▁ü 1
hab 1
▁administra 1
▁29 1
▁kommt 1
ière 1
erstand 1
▁tant 1
äß 1
▁muchos 1
ked 1
ists 1
▁aura 1
▁equipo 1
ries 1
iles 1
▁bor 1
▁Wohn 1
▁télé 1
▁sites 1
▁Red 1
çais 1
▁meet 1
▁ville 1
osse 1
▁Kle 1
▁eli 1
▁ww 1
▁const 1
▁cosas 1
▁opportun 1
uth 1
istro 1
▁crea 1
rado 1
▁Tre 1
▁looking 1
▁minutes 1
▁caratter 1
ologia 1
▁Rad 1
tamento 1
klich 1
▁Cat 1
graph 1
▁pouvez 1
▁accomp 1
auer 1
▁qualche 1
iore 1
▁kosten 1
▁ihrer 1
▁gest 1
spre 1
▁Durch 1
▁regard 1
▁contact 1
▁Jan 1
▁eigen 1
▁capit 1
inst 1
▁diesen 1
▁sigui 1
alen 1
▁vraiment 1
▁mentre 1
▁www 1
IV 1
leur 1
▁sui 1
▁compte 1
▁einmal 1
▁dej 1
▁turn 1
esi 1
loss 1
tiene 1
eto 1
▁altro 1
care 1
▁contrat 1
▁avere 1
çon 1
▁significa 1
▁scel 1
sta 1
▁plac 1
“, 1
TO 1
▁sí 1
▁punt 1
▁meno 1
▁photos 1
▁stor 1
▁vas 1
▁contemp 1
▁meine 1
encias 1
▁mind 1
veau 1
fang 1
▁less 1
▁réf 1
of 1
emple 1
▁Will 1
IM 1
▁chose 1
▁particuli 1
▁verschieden 1
▁kein 1
chine 1
▁beh 1
▁ped 1
otros 1
▁Als 1
▁invece 1
▁Stand 1
itor 1
tivas 1
èrement 1
organ 1
▁attività 1
gang 1
▁storia 1
▁avons 1
érieur 1
entras 1
▁techni 1
▁days 1
▁aj 1
▁ihn 1
lace 1
zug 1
aban 1
ilar 1
▁eu 1
▁Bra 1
▁Rom 1
▁ihren 1
▁date 1
15 1
▁mainten 1
▁chat 1
▁conc 1
cionales 1
▁Bel 1
▁commen 1
▁hotel 1
forder 1
ords 1
-0 1
rare 1
ération 1
▁io 1
▁defini 1
▁simp 1
▁colo 1
▁gam 1
▁verdad 1
▁euro 1
▁investi 1
▁steht 1
ibili 1
▁España 1
estival 1
▁90 1
teri 1
▁mej 1
▁York 1
▁asse 1
tidi 1
▁deta 1
érica 1
tour 1
▁quelle 1
änger 1
▁separ 1
wert 1
25 1
prend 1
▁trabaj 1
▁70 1
play 1
▁algunos 1
gún 1
ila 1
wort 1
▁har 1
▁lat 1
nisse 1
▁tutta 1
▁kon 1
▁job 1
▁Ave 1
udes 1
olf 1
▁ella 1
▁ricerca 1
▁Ass 1
▁gas 1
▁historia 1
uchen 1
esen 1
▁mia 1
ased 1
porte 1
▁squ 1
▁rappres 1
kommen 1
▁Mann 1
▁Gl 1
90 1
verti 1
▁nuestros 1
▁Plan 1
▁Ca 1
bie 1
OC 1
▁alcuni 1
▁calidad 1
mment 1
▁Mont 1
▁interest 1
socia 1
▁vig 1
▁forme 1
vous 1
▁human 1
▁prendre 1
▁millones 1
▁gef 1
▁pel 1
ony 1
omin 1
▁sang 1
ículo 1
▁current 1
▁major 1
gia 1
▁hoch 1
▁fantas 1
▁bag 1
▁attraverso 1
,” 1
log 1
bum 1
▁campo 1
▁estable 1
▁vel 1
▁tuo 1
11 1
ension 1
▁empresa 1
▁Our 1
roid 1
imi 1
▁nueva 1
▁That 1
vision 1
▁jeder 1
usti 1
umen 1
▁Bil 1
▁trois 1
▁demand 1
alog 1
aler 1
lease 1
▁perman 1
▁cause 1
▁peuvent 1
cimiento 1
▁sulle 1
▁Sport 1
▁dan 1
rique 1
▁esemp 1
isme 1
rale 1
▁Ide 1
▁coin 1
ritto 1
▁prodotti 1
ring 1
▁seem 1
▁discuss 1
▁Sm 1
▁Pf 1
▁È 1
▁house 1
▁PDF 1
amenti 1
▁precis 1
ducation 1
▁nouvelle 1
▁horas 1
▁remo 1
▁drei 1
▁circa 1
▁inici 1
▁Saint 1
ley 1
urer 1
orge 1
▁div 1
falls 1
indows 1
▁années 1
▁Come 1
iture 1
▁occas 1
▁govern 1
▁nú 1
▁parl 1
ientos 1
ream 1
coli 1
▁Europa 1
▁savoir 1
▁website 1
▁nuova 1
▁questions 1
▁ici 1
▁bonne 1
▁original 1
▁decid 1
▁Ta 1
meno 1
▁alta 1
▁seinen 1
onders 1
nos 1
stüt 1
etro 1
▁ceux 1
etzen 1
yd 1
unge 1
▁probl 1
▁spiel 1
70 1
▁presso 1
identi 1
UN 1
df 1
nahme 1
▁tradition 1
▁porte 1
ibilidad 1
▁valor 1
▁servicios 1
▁addition 1
band 1
rim 1
▁optim 1
▁studi 1
rato 1
▁modern 1
mero 1
▁Ren 1
▁Pol 1
▁mientras 1
▁rispetto 1
▁resear 1
▁institu 1
lish 1
Al 1
▁mm 1
bir 1
TA 1
▁old 1
▁ning 1
▁nas 1
gación 1
grund 1
üh 1
▁recherche 1
▁encontrar 1
tagon 1
acqu 1
tien 1
▁document 1
fern 1
room 1
▁jedoch 1
▁culture 1
quip 1
ánd 1
adem 1
▁environ 1
▁Proble 1
ury 1
▁sopr 1
▁attend 1
▁syst 1
▁». 1
▁tel 1
▁light 1
▁déf 1
▁inté 1
▁Lebens 1
▁diffici 1
allen 1
zionali 1
▁Not 1
orf 1
▁Part 1
joy 1
▁Natur 1
▁lieu 1
▁celui 1
▁God 1
▁Kunden 1
▁individual 1
▁enter 1
▁eleg 1
▁Buch 1
onne 1
▁dest 1
▁pouvoir 1
rank 1
▁Tele 1
▁food 1
▁dec 1
▁mettre 1
▁sap 1
zzazione 1
▁Mill 1
eau 1
▁Program 1
!!! 1
ning 1
▁servizio 1
ritt 1
onces 1
▁bisog 1
ciendo 1
▁aque 1
▁against 1
▁list 1
añ 1
▁ado 1
▁description 1
ideos 1
▁trouver 1
▁dol 1
▁card 1
▁apo 1
▁mac 1
▁compet 1
▁grazie 1
▁enfants 1
hic 1
▁mili 1
▁produits 1
ination 1
▁decl 1
▁4. 1
äng 1
kun 1
▁mieux 1
▁What 1
ogli 1
▁(3 1
▁Seite 1
quement 1
icazione 1
aute 1
▁jue 1
▁Wor 1
▁quasi 1
▁guard 1
ém 1
▁Bed 1
dial 1
▁Vis 1
Pro 1
nier 1
▁complete 1
▁today 1
▁alterna 1
▁Sc 1
▁benefici 1
altung 1
▁però 1
▁hacia 1
▁Mun 1
face 1
▁quat 1
▁diferentes 1
omas 1
vention 1
él 1
inger 1
▁rin 1
anzi 1
▁download 1
▁Som 1
▁Weit 1
▁servicio 1
▁signific 1
vista 1
▁educa 1
ingt 1
▁Wasser 1
▁veces 1
aciones 1
top 1
▁sema 1
alo 1
attutto 1
▁mand 1
▁cover 1
▁buy 1
▁sos 1
▁Em 1
▁research 1
esa 1
▁concent 1
▁ov 1
▁hö 1
▁working 1
▁stati 1
▁196 1
ki 1
itä 1
acy 1
▁piano 1
▁igu 1
▁Alle 1
ranno 1
év 1
▁Arbeits 1
▁quality 1
▁imag 1
volution 1
xico 1
▁popular 1
▁Tri 1
iety 1
▁making 1
fois 1
▁away 1
▁offre 1
▁recomm 1
▁pendant 1
▁past 1
zahl 1
▁novembre 1
▁pros 1
▁principal 1
mobili 1
pect 1
eda 1
▁servizi 1
▁dijo 1
▁vale 1
▁women 1
▁grado 1
ably 1
▁Questo 1
rano 1
rito 1
ah 1
▁europe 1
urance 1
aly 1
exp 1
▁contrib 1
igung 1
alk 1
▁software 1
▁bietet 1
▁Informationen 1
▁estaba 1
oltre 1
▁cô 1
▁tempor 1
rée 1
ergie 1
▁sare 1
▁Rück 1
toff 1
▁ep 1
oses 1
anks 1
bol 1
llt 1
ode 1
▁eben 1
▁agua 1
▁pró 1
eraus 1
▁Inf 1
▁Unternehmen 1
apos 1
erva 1
▁virt 1
ût 1
son 1
ischer 1
▁avez 1
utter 1
▁sicher 1
▁Ré 1
▁Leben 1
▁maggi 1
▁extre 1
▁qualità 1
▁Ve 1
▁acuer 1
▁identif 1
thers 1
▁verso 1
hib 1
esell 1
▁Abs 1
ôle 1
45 1
conóm 1
▁bill 1
▁Port 1
▁lit 1
▁alm 1
▁deber 1
▁Sol 1
arias 1
ennt 1
▁infatti 1
▁children 1
▁propr 1
▁muchas 1
▁Spa 1
▁dort 1
▁según 1
tar 1
▁lic 1
EM 1
itement 1
gue 1
liz 1
▁ps 1
▁vent 1
▁compañ 1
▁kommen 1
oph 1
ults 1
ichten 1
▁kind 1
▁relations 1
▁financi 1
▁Sim 1
▁funcion 1
▁giov 1
▁Pra 1
fit 1
▁35 1
▁docum 1
▁band 1
riff 1
▁cier 1
▁würde 1
▁though 1
iesta 1
klär 1
adora 1
▁temper 1
▁understand 1
▁vuel 1
▁ress 1
▁projet 1
▁natural 1
▁españ 1
itation 1
▁Tur 1
▁sole 1
▁Off 1
▁Como 1
▁ello 1
▁expl 1
▁welche 1
▁utiliz 1
▁article 1
ront 1
▁ora 1
fu 1
▁Studi 1
▁fron 1
bet 1
▁misma 1
osé 1
▁Organ 1
▁informazioni 1
ió 1
▁embargo 1
▁productos 1
uren 1
tigt 1
II 1
legen 1
▁souvent 1
▁result 1
▁Frauen 1
▁elett 1
▁tus 1
blo 1
ases 1
▁qualité 1
dings 1
▁position 1
▁Del 1
▁Mac 1
▁reste 1
aupt 1
▁fres 1
▁petite 1
▁particolare 1
pper 1
vant 1
isp 1
▁euros 1
▁segur 1
ître 1
▁satis 1
bru 1
▁conditions 1
IP 1
▁grupo 1
▁having 1
▁schnell 1
▁macht 1
▁Tour 1
▁Hol 1
lang 1
▁dese 1
xe 1
▁students 1
zer 1
▁passe 1
▁posible 1
IG 1
24 1
▁Auto 1
werk 1
▁ade 1
▁aquí 1
▁gratuit 1
▁adv 1
ettore 1
▁agen 1
ners 1
zimmer 1
artic 1
bro 1
▁domin 1
▁ase 1
▁These 1
▁international 1
utschen 1
▁sever 1
éro 1
rás 1
ierten 1
pped 1
▁girl 1
aría 1
medi 1
cch 1
▁év 1
▁dernier 1
▁Ende 1
▁alto 1
iate 1
▁corso 1
▁cres 1
kehr 1
vait 1
vato 1
▁soprattutto 1
▁Men 1
▁money 1
▁Nord 1
zze 1
▁niveau 1
▁why 1
▁strutt 1
creto 1
▁check 1
▁numero 1
▁proceso 1
▁lum 1
pet 1
aient 1
▁svol 1
▁based 1
▁ausge 1
▁wirklich 1
▁micro 1
▁akt 1
omme 1
▁mujeres 1
schied 1
▁libre 1
▁droit 1
getti 1
▁spir 1
éné 1
ami 1
kten 1
gether 1
▁invol 1
▁maggio 1
▁Christ 1
▁ihm 1
▁negli 1
▁introdu 1
cupa 1
rieben 1
...) 1
âce 1
▁Kre 1
▁mad 1
▁Aust 1
▁ley 1
▁note 1
▁parce 1
▁easy 1
▁inser 1
hod 1
▁arm 1
kre 1
▁Además 1
rige 1
▁500 1
▁Foto 1
▁bzw 1
CH 1
▁thing 1
utos 1
▁azi 1
▁aten 1
▁técn 1
▁periodo 1
▁miss 1
alu 1
▁rigu 1
▁LA 1
▁period 1
▁sau 1
▁points 1
▁include 1
▁fest 1
omini 1
▁scu 1
-3 1
utsche 1
ture 1
▁mari 1
jourd 1
sych 1
▁cambio 1
▁Ann 1
▁parten 1
▁futuro 1
▁raggi 1
erein 1
pas 1
▁deci 1
pose 1
▁pied 1
▁Madrid 1
issens 1
uche 1
anst 1
▁queste 1
▁along 1
▁territorio 1
▁sehen 1
▁progetto 1
▁oblig 1
▁November 1
▁Ele 1
▁ll 1
▁nécess 1
▁sale 1
ein 1
ham 1
▁nation 1
▁nar 1
▁Proje 1
light 1
▁Conse 1
▁nichts 1
▁trouve 1
▁name 1
▁ul 1
▁Park 1
▁Nor 1
▁Jean 1
▁Ros 1
reichen 1
▁jeu 1
back 1
RA 1
isine 1
uhe 1
▁accord 1
▁problem 1
eur 1
▁style 1
autre 1
vrir 1
▁specific 1
23 1
iente 1
üns 1
▁-- 1
▁incontri 1
▁products 1
▁surtout 1
▁propor 1
▁Sil 1
▁grö 1
▁Septem 1
▁sud 1
ush 1
18 1
tionen 1
▁Home 1
▁Apri 1
▁pack 1
▁struct 1
uni 1
▁sf 1
▁Lib 1
▁More 1
▁konnte 1
▁demo 1
ettes 1
▁PC 1
ize 1
▁siamo 1
▁Pi 1
▁demande 1
▁mise 1
▁news 1
isión 1
▁product 1
▁soir 1
▁desarrollo 1
nea 1
▁communic 1
▁lég 1
▁ejemplo 1
outh 1
rieb 1
▁natürlich 1
▁Bri 1
ualmente 1
vos 1
gni 1
èle 1
▁geme 1
▁fit 1
▁Möglichkeit 1
bbero 1
▁femmes 1
▁Nutz 1
▁má 1
▁laiss 1
▁posto 1
▁Best 1
▁représ 1
▁allo 1
essi 1
tiven 1
ró 1
▁publi 1
bei 1
▁Lond 1
tazione 1
ckt 1
▁stat 1
▁noti 1
▁diverse 1
IO 1
▁instal 1
poli 1
▁!! 1
▁model 1
▁often 1
▁direc 1
▁liegt 1
née 1
off 1
▁National 1
▁cuer 1
ünf 1
gles 1
▁sais 1
zei 1
▁version 1
ológ 1
▁unique 1
cons 1
cipl 1
▁Jes 1
▁ext 1
heits 1
▁@ 1
▁sull 1
▁jur 1
▁meglio 1
▁esempio 1
▁Service 1
▁hon 1
zas 1
mite 1
▁sper 1
▁mort 1
gangen 1
▁convers 1
anten 1
▁times 1
▁sesso 1
▁rice 1
▁bil 1
licación 1
▁nostri 1
▁proyecto 1
▁body 1
▁fueron 1
▁together 1
glie 1
tschaft 1
▁bio 1
▁ye 1
▁schw 1
▁tun 1
▁ciò 1
itable 1
gre 1
▁Schul 1
▁community 1
raft 1
▁situation 1
▁grandi 1
▁scri 1
▁interpre 1
stems 1
rang 1
▁dess 1
▁match 1
▁Club 1
▁salud 1
▁ense 1
urt 1
▁Minister 1
Es 1
▁remp 1
mus 1
ateurs 1
▁region 1
LE 1
vient 1
nelle 1
bit 1
▁vill 1
▁insieme 1
▁groupe 1
tà 1
▁fix 1
▁protagon 1
▁europ 1
▁text 1
▁bajo 1
▁sosten 1
▁initi 1
▁until 1
▁arg 1
▁competi 1
quent 1
▁celle 1
▁integra 1
▁Kosten 1
▁sum 1
quipe 1
): 1
▁Nacional 1
▁apar 1
ilfe 1
▁luego 1
▁email 1
▁juste 1
▁minim 1
imenti 1
▁performance 1
El 1
▁Berlin 1
▁ever 1
▁needs 1
tidad 1
▁tax 1
icamente 1
isa 1
▁side 1
▁perfect 1
inner 1
▁immag 1
inal 1
14 1
zón 1
ific 1
iedad 1
▁Ents 1
▁national 1
▁Plus 1
▁Tw 1
▁celebra 1
▁Indi 1
jets 1
ville 1
▁hora 1
aring 1
▁story 1
▁General 1
▁front 1
▁legge 1
▁medic 1
ühr 1
ète 1
▁September 1
▁UN 1
▁Mass 1
▁erhalten 1
▁later 1
rón 1
▁fá 1
▁Ils 1
▁jeune 1
▁University 1
▁desp 1
▁Acc 1
▁2009 1
ograph 1
abilidad 1
▁Tu 1
usse 1
▁compon 1
wards 1
pes 1
▁3, 1
olas 1
oix 1
▁scienti 1
▁cole 1
neh 1
wand 1
rend 1
sprech 1
▁confi 1
▁fis 1
lls 1
▁statt 1
ought 1
▁emer 1
▁semana 1
tivamente 1
Ma 1
▁cose 1
▁volte 1
▁gerne 1
Se 1
▁whe 1
▁view 1
low 1
▁dafür 1
orti 1
ciedad 1
ambre 1
unds 1
quoi 1
▁material 1
cci 1
▁gob 1
▁represent 1
orsi 1
▁patri 1
PS 1
▁français 1
vento 1
▁gesti 1
▁genau 1
▁mediante 1
▁resto 1
▁fru 1
▁happ 1
▁niños 1
▁haber 1
▁forte 1
rico 1
▁wollen 1
▁Sen 1
▁voll 1
▁Ces 1
▁nosotros 1
▁Hö 1
ingu 1
▁DI 1
▁teach 1
cription 1
omet 1
▁studio 1
unda 1
izia 1
▁stehen 1
tellung 1
ziale 1
▁näch 1
▁besoin 1
▁marketing 1
▁Air 1
▁causa 1
ability 1
ized 1
▁clients 1
ît 1
érer 1
▁incor 1
▁Camp 1
▁capital 1
▁iP 1
cking 1
wor 1
▁série 1
aterial 1
ít 1
▁sport 1
unst 1
éré 1
▁perf 1
cca 1
▁Arch 1
▁acuerdo 1
cture 1
▁facile 1
▁rifer 1
13 1
▁City 1
▁quelli 1
▁Sono 1
anger 1
▁marzo 1
▁económ 1
ither 1
▁registra 1
▁After 1
▁nega 1
▁molti 1
rate 1
ursos 1
arán 1
▁Ri 1
▁Frau 1
▁sociale 1
▁Fern 1
▁programa 1
▁settim 1
uly 1
▁conocer 1
▁Bü 1
onde 1
gione 1
▁buena 1
▁100% 1
▁selon 1
▁cabe 1
▁experiencia 1
▁livello 1
ände 1
.- 1
▁gracias 1
undo 1
▁Os 1
▁syn 1
▁organi 1
▁geben 1
vement 1
▁quotidi 1
utilis 1
▁Pap 1
▁Top 1
▁annunci 1
▁strateg 1
▁sw 1
▁otten 1
▁mejores 1
▁done 1
▁cub 1
▁country 1
ximo 1
eff 1
▁seguridad 1
▁rencontres 1
▁preced 1
▁dirig 1
ichen 1
▁become 1
▁Hoch 1
▁pad 1
atorio 1
▁Lin 1
cident 1
▁report 1
▁empresas 1
emente 1
iler 1
▁capa 1
▁aveva 1
▁ideas 1
▁igual 1
▁sector 1
igur 1
▁letzten 1
▁exclus 1
▁Frank 1
▁gerade 1
▁tua 1
ills 1
▁dic 1
▁vielen 1
ionen 1
▁rapid 1
▁Gli 1
äu 1
ove 1
itas 1
▁orden 1
▁innova 1
seite 1
wohl 1
▁gol 1
▁Beg 1
▁municip 1
▁night 1
aby 1
▁Mod 1
aga 1
▁Sicher 1
▁enjoy 1
ticamente 1
▁production 1
▁low 1
▁Video 1
▁wohl 1
▁Colle 1
▁incluso 1
▁radio 1
▁lasci 1
▁famille 1
inar 1
èmes 1
ically 1
▁Cent 1
▁USA 1
▁touch 1
▁Cha 1
lichkeit 1
▁makes 1
▁Yo 1
chè 1
▁desarroll 1
uestra 1
▁Tout 1
agna 1
▁compl 1
▁contribu 1
▁Besch 1
▁travers 1
▁ak 1
▁Mode 1
▁means 1
▁cad 1
», 1
▁muer 1
16 1
▁einge 1
unch 1
örper 1
▁aujourd 1
▁Gio 1
anté 1
▁digital 1
▁effect 1
▁World 1
▁Preis 1
illo 1
▁Fach 1
▁Musik 1
▁0, 1
frut 1
▁distribu 1
▁satisf 1
▁während 1
prü 1
▁2000 1
▁rund 1
céd 1
tellig 1
▁mobile 1
▁law 1
ready 1
▁expres 1
▁jeden 1
▁enough 1
▁sociales 1
▁wäre 1
▁Black 1
▁pla 1
▁pág 1
▁Sti 1
); 1
▁palab 1
usion 1
▁45 1
▁seinem 1
▁resol 1
▁número 1
urezza 1
▁CD 1
cchi 1
cla 1
▁image 1
tación 1
▁seguir 1
ash 1
▁maxim 1
conos 1
▁Verb 1
▁Chi 1
▁personn 1
estre 1
▁network 1
▁numer 1
▁personali 1
ersch 1
tional 1
▁land 1
gro 1
lection 1
▁American 1
▁didn 1
▁development 1
▁choix 1
wicklung 1
▁costru 1
▁font 1
▁IS 1
itte 1
▁chr 1
▁black 1
▁exemple 1
tigkeit 1
▁August 1
▁Windows 1
curity 1
▁recuper 1
▁project 1
Ital 1
▁aument 1
▁weitere 1
▁certains 1
▁Ah 1
adie 1
rant 1
▁Fu 1
▁left 1
iga 1
▁società 1
▁Kir 1
▁einige 1
▁Tut 1
▁Kü 1
▁several 1
weg 1
▁estre 1
▁peso 1
▁rid 1
▁possibilità 1
uell 1
▁limit 1
▁direkt 1
OT 1
▁aim 1
▁spesso 1
▁compos 1
▁desta 1
▁amer 1
▁lado 1
▁Team 1
rop 1
toire 1
urre 1
▁potenti 1
▁Prin 1
arda 1
▁général 1
▁gros 1
▁city 1
▁future 1
▁create 1
ests 1
erc 1
▁2008 1
▁Avec 1
bon 1
▁homme 1
punkt 1
▁couple 1
▁pense 1
leit 1
▁wenig 1
▁assez 1
?? 1
▁resid 1
▁amor 1
▁coment 1
▁getting 1
▁permett 1
▁début 1
arri 1
▁mur 1
▁Jug 1
▁sujet 1
▁sécur 1
▁meses 1
reiben 1
▁vidé 1
cciones 1
▁oft 1
▁rev 1
▁Jap 1
▁April 1
▁members 1
▁once 1
▁große 1
cap 1
▁anci 1
▁rapport 1
indre 1
▁Thema 1
erte 1
▁code 1
▁Muse 1
▁Après 1
▁Sci 1
▁notamment 1
▁cy 1
ondere 1
▁pom 1
19 1
▁others 1
▁Mc 1
▁constitu 1
St 1
auen 1
▁familia 1
▁Real 1
▁rob 1
▁mean 1
▁programma 1
ilos 1
▁denen 1
▁ec 1
trag 1
▁Santa 1
ieri 1
▁Geschä 1
ology 1
▁kit 1
▁ach 1
▁polic 1
▁Bay 1
ñas 1
gestellt 1
▁pdf 1
▁parents 1
tos 1
▁minist 1
anni 1
ersi 1
▁hät 1
▁plas 1
▁propria 1
achen 1
itación 1
▁carte 1
▁donna 1
▁Act 1
usa 1
▁spécial 1
ENT 1
ponse 1
▁least 1
▁Instit 1
▁series 1
▁impe 1
▁También 1
▁beiden 1
tez 1
Sch 1
▁existen 1
vic 1
istenza 1
We 1
schließ 1
▁Also 1
▁osp 1
▁cultura 1
▁called 1
17 1
ciale 1
▁previs 1
▁pubblic 1
▁charge 1
▁alum 1
▁kurz 1
platz 1
alter 1
▁ub 1
äter 1
áp 1
▁hombre 1
verno 1
▁Cos 1
▁données 1
interno 1
▁seconda 1
reso 1
alten 1
▁friends 1
otte 1
▁spor 1
times 1
▁source 1
pti 1
altro 1
▁already 1
lleicht 1
No 1
side 1
▁cittad 1
▁300 1
▁High 1
▁5. 1
▁Ok 1
▁break 1
äm 1
▁gab 1
▁gri 1
▁Weg 1
partment 1
izo 1
▁soli 1
▁großen 1
mate 1
ienne 1
▁tengo 1
tte 1
▁miglior 1
▁fuera 1
▁scor 1
▁Milano 1
__ 1
▁prodotto 1
istance 1
igos 1
icial 1
ardi 1
erve 1
▁côté 1
▁ness 1
esp 1
▁clean 1
▁prior 1
▁sed 1
▁return 1
▁erste 1
▁lon 1
▁façon 1
▁following 1
▁Leist 1
né 1
▁pross 1
feld 1
EG 1
cando 1
▁trib 1
▁quick 1
▁mul 1
▁treat 1
▁pue 1
▁Comun 1
▁divent 1
▁sug 1
nehmer 1
▁Dam 1
▁age 1
kle 1
lación 1
azi 1
▁puedes 1
▁bambini 1
ower 1
▁passer 1
idd 1
onda 1
▁actually 1
▁difficile 1
▁bieten 1
▁vé 1
weis 1
▁ut 1
ufen 1
▁norm 1
▁exist 1
umpli 1
AG 1
ele 1
ierra 1
▁nunca 1
cier 1
▁genera 1
▁regist 1
▁fabric 1
▁société 1
22 1
▁conte 1
olazione 1
▁method 1
▁investig 1
▁doing 1
▁content 1
▁Bal 1
cular 1
▁aspe 1
▁tenemos 1
▁besonders 1
▁année 1
lik 1
ieg 1
▁cliente 1
▁sette 1
ienti 1
▁cic 1
▁bast 1
▁juego 1
▁action 1
legt 1
▁centre 1
▁últim 1
▁Sing 1
edor 1
▁seul 1
emo 1
▁Geld 1
uck 1
▁Gran 1
▁fondo 1
▁gehen 1
▁diversi 1
▁gute 1
tail 1
onnement 1
▁says 1
suite 1
▁hemos 1
▁propose 1
▁artist 1
▁dimens 1
▁However 1
altà 1
▁piè 1
▁continue 1
▁dich 1
▁résult 1
tiful 1
uye 1
▁Vie 1
▁tête 1
mientos 1
▁Estado 1
▁difficult 1
▁Tex 1
▁standard 1
▁essenti 1
▁fisc 1
ray 1
▁Wochen 1
leurs 1
▁bud 1
öffentlich 1
▁risulta 1
vation 1
▁PS 1
▁wichtig 1
TM 1
▁versch 1
▁How 1
▁prác 1
▁etwa 1
▁Von 1
▁darauf 1
fri 1
▁forn 1
▁möchte 1
▁cant 1
▁try 1
alité 1
▁conj 1
▁serait 1
▁stessa 1
▁West 1
▁came 1
▁sen 1
uste 1
▁scar 1
▁.. 1
issement 1
▁000 1
▁verl 1
▁tranqu 1
▁Film 1
▁Cuando 1
ured 1
▁pris 1
rera 1
▁unas 1
▁computer 1
▁Star 1
▁David 1
bern 1
▁Ten 1
quel 1
▁gruppo 1
▁quelque 1
▁Christi 1
▁Janu 1
▁siè 1
▁naturale 1
▁director 1
▁ES 1
▁manifesta 1
anche 1
▁existe 1
▁rent 1
▁solution 1
▁Centro 1
▁mercado 1
tres 1
ospital 1
abilità 1
▁läs 1
▁sogar 1
ources 1
▁unseren 1
▁sod 1
▁across 1
▁Hum 1
▁largo 1
▁comes 1
▁visite 1
ctif 1
monio 1
▁parece 1
▁smart 1
▁realizar 1
▁excell 1
aps 1
▁young 1
▁mercato 1
▁account 1
▁thought 1
onia 1
▁mujer 1
▁problemas 1
▁Some 1
▁eigenen 1
ysi 1
▁chance 1
▁emple 1
▁Platz 1
erta 1
▁groß 1
now 1
▁trovare 1
▁Priv 1
▁péri 1
ierre 1
ague 1
Ad 1
ieron 1
▁seulement 1
esellschaft 1
▁ép 1
▁industri 1
▁aún 1
▁bad 1
▁Rich 1
▁gemacht 1
▁pubblico 1
▁raccon 1
▁Pass 1
rand 1
üs 1
nu 1
▁tw 1
]. 1
gabe 1
▁Fol 1
▁junto 1
▁grâce 1
▁infl 1
▁formation 1
▁ago 1
iben 1
▁dato 1
istoire 1
▁fen 1
recht 1
lauf 1
kunft 1
▁Konta 1
▁symp 1
▁enfer 1
▁norma 1
ccol 1
▁système 1
▁Beispiel 1
▁alguna 1
▁mesi 1
▁explic 1
sive 1
▁Sub 1
ately 1
▁madre 1
mentos 1
▁Juli 1
▁México 1
▁teil 1
prises 1
issimo 1
▁relación 1
▁inner 1
▁Pan 1
rigen 1
rán 1
▁italiano 1
▁key 1
▁share 1
ccion 1
▁êtes 1
▁llegar 1
▁trova 1
zieh 1
▁study 1
ám 1
▁realtà 1
▁focus 1
▁plut 1
▁seguito 1
rän 1
▁décl 1
▁orient 1
avoir 1
rift 1
ós 1
▁lange 1
▁champ 1
De 1
▁afe 1
cheid 1
tikel 1
▁Bien 1
▁essay 1
▁nome 1
▁führ 1
▁pien 1
UT 1
▁reason 1
▁venta 1
ultur 1
▁Webs 1
plac 1
▁By 1
▁Sar 1
," 1
dez 1
▁solic 1
.: 1
As 1
▁besten 1
ennen 1
ife 1
anco 1
▁devant 1
▁agosto 1
▁corps 1
▁oportun 1
▁comer 1
▁Schwe 1
▁Ihrer 1
▁funzion 1
▁mam 1
▁liter 1
▁SP 1
▁Zusammen 1
▁rema 1
▁Ziel 1
lished 1
Qu 1
arla 1
▁usted 1
▁salle 1
▁sommes 1
entas 1
▁Paul 1
▁quoi 1
ls 1
,000 1
▁cann 1
▁require 1
▁clos 1
uma 1
éma 1
▁six 1
▁stri 1
stellung 1
▁région 1
▁images 1
tete 1
▁saranno 1
oman 1
otta 1
▁Bank 1
▁explo 1
▁example 1
ubre 1
ived 1
▁United 1
roso 1
▁algunas 1
▁Geb 1
▁inse 1
▁plais 1
lim 1
cing 1
▁search 1
▁China 1
▁News 1
ader 1
▁hub 1
39 1
▁Dios 1
▁Vene 1
lément 1
▁apare 1
▁price 1
▁parole 1
inf 1
▁esti 1
llte 1
▁saber 1
▁schön 1
glichen 1
antage 1
▁Entre 1
4) 1
▁location 1
▁lässt 1
▁Gob 1
▁Doch 1
ulture 1
▁Bor 1
▁hold 1
▁195 1
siasi 1
▁194 1
estra 1
▁vuo 1
ció 1
▁Post 1
onom 1
▁(19 1
▁36 1
▁cura 1
zzata 1
zzati 1
▁ä 1
▁cuatro 1
▁Kunst 1
▁Social 1
▁Alex 1
▁dare 1
▁Ober 1
rach 1
▁situación 1
bia 1
wahl 1
▁management 1
▁Your 1
▁interven 1
ummer 1
licht 1
▁pubblica 1
ynam 1
▁grow 1
▁force 1
▁precio 1
ifen 1
▁potrebbe 1
▁Sw 1
▁cuerpo 1
▁doesn 1
▁detto 1
▁Kind 1
▁größ 1
▁integr 1
cosa 1
▁Link 1
occas 1
▁Erfahr 1
▁Play 1
▁million 1
ael 1
▁Us 1
▁concl 1
▁suff 1
▁conserv 1
uales 1
▁vengono 1
▁trata 1
rés 1
arious 1
quet 1
once 1
▁known 1
rück 1
reno 1
▁space 1
▁Contin 1
▁aufge 1
▁AL 1
riter 1
▁range 1
▁économ 1
▁reti 1
lan 1
ibilità 1
▁eux 1
itch 1
fono 1
ktur 1
▁private 1
▁maggior 1
▁batter 1
▁Net 1
ppi 1
▁Mr 1
▁Anton 1
▁near 1
▁politique 1
tas 1
▁Rechts 1
▁jard 1
▁ero 1
▁Grand 1
▁digit 1
▁application 1
▁conclus 1
fas 1
gment 1
itario 1
gré 1
▁modific 1
iede 1
▁gobierno 1
▁vedere 1
▁collection 1
▁firm 1
▁otto 1
örder 1
▁client 1
▁guerra 1
▁könnte 1
▁compan 1
▁flu 1
▁près 1
▁Indust 1
itore 1
▁gens 1
▁frente 1
tido 1
▁stamp 1
usement 1
▁watch 1
▁euch 1
▁government 1
tanto 1
▁répond 1
▁Mot 1
.“ 1
inten 1
▁mús 1
itan 1
▁zahl 1
führt 1
pir 1
▁purch 1
▁Mittel 1
▁bestimm 1
adra 1
▁amici 1
▁affe 1
rast 1
▁sembra 1
▁CON 1
schluss 1
produ 1
▁sicurezza 1
▁caracter 1
▁Sem 1
▁collabor 1
▁Zahl 1
▁Ric 1
tto 1
▁gusta 1
▁tir 1
▁Vic 1
▁settore 1
▁famiglia 1
position 1
otes 1
ym 1
▁jewe 1
▁padre 1
▁Ans 1
▁außer 1
▁Mat 1
▁lista 1
▁relev 1
ilie 1
ghts 1
▁cuisine 1
▁Fab 1
▁solid 1
▁encuentra 1
▁Así 1
atrice 1
▁ast 1
▁fuori 1
voll 1
inta 1
enso 1
áb 1
▁Pos 1
▁Ant 1
▁tale 1
▁varios 1
▁público 1
▁elimin 1
etter 1
▁sû 1
mäß 1
bung 1
▁repar 1
▁ocas 1
opf 1
35 1
▁zie 1
▁escri 1
▁depend 1
ément 1
uv 1
.00 1
rice 1
ivamente 1
eth 1
itez 1
▁voul 1
▁materia 1
▁diagn 1
▁Russ 1
▁effett 1
▁béné 1
▁AN 1
▁occ 1
▁everything 1
▁schö 1
dire 1
edia 1
etzung 1
▁davon 1
▁Mitarbeit 1
ürger 1
▁bring 1
Il 1
brauch 1
“. 1
▁Cong 1
ál 1
▁persön 1
▁minutos 1
▁Juan 1
▁started 1
▁corpo 1
▁German 1
▁recht 1
▁podemos 1
▁provincia 1
▁vir 1
▁qualsiasi 1
ights 1
Te 1
ois 1
uver 1
▁consult 1
▁wall 1
▁32 1
ivi 1
hle 1
▁percent 1
▁comenz 1
ops 1
▁Cro 1
▁proven 1
▁address 1
date 1
▁Dann 1
▁Kat 1
▁sede 1
▁maintenant 1
essione 1
üd 1
▁Sam 1
▁Inst 1
▁ear 1
▁plutôt 1
▁features 1
uvre 1
▁último 1
▁davvero 1
CI 1
▁vue 1
▁Porno 1
▁retour 1
▁besser 1
▁Exper 1
▁vero 1
▁findet 1
▁confron 1
into 1
▁parc 1
▁terre 1
▁automati 1
75 1
▁someone 1
▁cadre 1
▁gemeins 1
▁unserem 1
issione 1
Italia 1
ancial 1
▁sociedad 1
LA 1
▁Jugend 1
▁mix 1
▁nombreux 1
▁comunque 1
▁EN 1
▁friend 1
▁entwick 1
▁Mehr 1
ussi 1
▁donner 1
▁hommes 1
iges 1
nahmen 1
▁Funk 1
▁paso 1
▁lungo 1
▁Sand 1
▁volont 1
▁took 1
resso 1
schn 1
▁procha 1
nement 1
▁rius 1
▁équip 1
aine 1
cit 1
érence 1
▁Komm 1
▁sort 1
▁Dopo 1
mazon 1
▁deal 1
iled 1
▁intens 1
▁hours 1
dito 1
istica 1
▁led 1
▁chau 1
▁rub 1
▁respect 1
▁Dat 1
usätz 1
▁staff 1
▁offers 1
tero 1
fique 1
▁â 1
tiz 1
▁went 1
▁Sams 1
▁liqu 1
▁personale 1
▁alcune 1
EO 1
eten 1
▁ideal 1
▁ráp 1
▁Cour 1
▁tag 1
▁Ihren 1
▁International 1
▁results 1
▁weiß 1
▁heures 1
▁repro 1
▁sarebbe 1
▁foot 1
▁tab 1
orig 1
▁minuti 1
nehm 1
prit 1
▁early 1
▁cumpli 1
pie 1
▁season 1
▁succ 1
▁School 1
▁verw 1
▁yet 1
▁Estados 1
▁choses 1
▁opin 1
▁gou 1
▁objetivo 1
▁serve 1
ledge 1
▁field 1
▁mira 1
avais 1
▁2007 1
▁hinter 1
ragen 1
▁happen 1
▁Cou 1
oría 1
▁150 1
▁neu 1
uri 1
▁uomo 1
▁siendo 1
gru 1
▁uni 1
ationen 1
▁mou 1
yes 1
▁loca 1
▁Angel 1
▁Isra 1
▁analys 1
▁películ 1
▁Stud 1
▁préf 1
arie 1
▁mare 1
▁ander 1
izzazione 1
▁Gobierno 1
ilien 1
▁classe 1
chnik 1
chan 1
▁actividades 1
▁realidad 1
▁stre 1
ären 1
rasse 1
▁invest 1
▁fotograf 1
pira 1
▁Feder 1
▁Regel 1
▁manière 1
▁ordin 1
issent 1
▁given 1
Th 1
▁self 1
ky 1
erm 1
jäh 1
hnt 1
rage 1
temps 1
embl 1
ging 1
▁IT 1
▁similar 1
▁paar 1
▁illust 1
cles 1
utlich 1
▁please 1
▁acom 1
itud 1
▁works 1
▁meiner 1
▁won 1
▁nuovi 1
rai 1
▁Prozent 1
plan 1
▁haut 1
▁Fri 1
▁Ris 1
▁Bilder 1
▁months 1
▁Rahmen 1
▁phys 1
▁costitu 1
▁discipl 1
▁fácil 1
▁Mart 1
▁nuove 1
IF 1
ennes 1
▁legis 1
▁sopra 1
▁Selbst 1
▁produit 1
▁Hay 1
▁global 1
altra 1
▁ví 1
arbe 1
▁living 1
▁brand 1
▁equip 1
▁vér 1
berto 1
▁juin 1
26 1
▁ihrem 1
▁guide 1
▁navig 1
▁seront 1
▁kleine 1
buch 1
rome 1
zung 1
▁richtig 1
▁élect 1
OP 1
nent 1
ufact 1
aum 1
même 1
▁plat 1
▁partido 1
▁puntos 1
bé 1
▁entonces 1
bildung 1
▁appear 1
▁history 1
cado 1
bach 1
▁entend 1
xy 1
▁4, 1
▁visita 1
▁tradu 1
anted 1
andon 1
ieux 1
▁nacional 1
▁pant 1
▁mobil 1
▁< 1
▁lun 1
▁below 1
auté 1
▁gioco 1
▁inizi 1
▁souha 1
itaire 1
▁anterior 1
diale 1
▁sam 1
▁étaient 1
▁elles 1
▁train 1
venue 1
▁Zum 1
nels 1
▁Down 1
▁verfü 1
▁gust 1
▁PR 1
▁interior 1
▁zwar 1
▁partecip 1
bu 1
oute 1
antwort 1
▁industry 1
▁Bereich 1
wood 1
▁issues 1
▁noche 1
leist 1
▁Out 1
▁atención 1
▁Cris 1
orter 1
osition 1
-201 1
▁indica 1
500 1
▁beautiful 1
▁Frage 1
▁ambiente 1
▁Nav 1
▁tard 1
▁expe 1
▁Dig 1
▁gay 1
▁reun 1
▁apr 1
roll 1
▁apri 1
issant 1
▁meilleur 1
▁Lou 1
▁subito 1
istor 1
▁développement 1
▁espacio 1
▁relig 1
▁Nos 1
▁política 1
▁above 1
änge 1
abel 1
éc 1
▁fore 1
▁jeunes 1
▁riconos 1
▁Start 1
▁rése 1
▁derecho 1
▁scre 1
▁sott 1
▁secret 1
▁Dien 1
▁box 1
▁psych 1
▁sitio 1
▁semaine 1
▁obra 1
forn 1
▁rais 1
▁bur 1
▁bian 1
▁tenía 1
▁Band 1
annten 1
rio 1
▁kostenlos 1
▁Ange 1
▁comunic 1
▁consulta 1
▁atra 1
▁Vin 1
▁gilt 1
fass 1
lossen 1
▁Market 1
tiger 1
▁kleinen 1
zy 1
aup 1
anas 1
▁dovre 1
▁passion 1
▁avre 1
ór 1
▁países 1
▁https 1
▁quest 1
IR 1
▁Besuch 1
▁accompagn 1
▁hatten 1
cune 1
▁fille 1
▁pick 1
mai 1
▁zone 1
▁size 1
lasse 1
▁erfolg 1
▁central 1
▁Apple 1
▁pure 1
vertir 1
fore 1
▁construction 1
▁poter 1
▁System 1
uellement 1
rata 1
dy 1
inning 1
▁integ 1
air 1
▁attention 1
tant 1
▁Ni 1
▁whole 1
▁kaufen 1
▁common 1
rite 1
▁permi 1
▁Mic 1
▁Sto 1
uble 1
▁prue 1
ieu 1
▁presta 1
▁lett 1
▁Desde 1
▁falta 1
▁finale 1
▁Verfü 1
cam 1
cteur 1
mals 1
cond 1
ugno 1
fier 1
phe 1
hler 1
▁value 1
▁subs 1
▁guid 1
UL 1
▁Esto 1
▁permite 1
mé 1
▁protection 1
box 1
▁infer 1
▁chiam 1
▁Mün 1
▁termine 1
▁AS 1
▁blanc 1
▁among 1
anden 1
▁wonder 1
ape 1
liches 1
▁sexe 1
atamente 1
▁Now 1
▁bout 1
▁artículo 1
▁CH 1
▁cultur 1
vati 1
▁preven 1
CE 1
▁José 1
▁raison 1
▁mese 1
▁correspon 1
▁chois 1
▁heraus 1
▁carta 1
MS 1
ätze 1
alización 1
pendant 1
tière 1
▁livre 1
▁Ort 1
▁vais 1
issenschaft 1
Ver 1
▁Febru 1
uellen 1
▁Kl 1
▁invers 1
▁Universidad 1
▁asegur 1
▁regular 1
▁podría 1
▁Seiten 1
28 1
▁Prä 1
gliere 1
▁(1) 1
var 1
illet 1
fä 1
ständ 1
ensive 1
▁consci 1
▁daß 1
TR 1
▁q 1
ählen 1
asing 1
▁independ 1
zial 1
▁Patri 1
▁Trump 1
▁Read 1
▁sett 1
année 1
äus 1
▁believe 1
mission 1
▁deren 1
▁Hin 1
▁Fragen 1
eler 1
▁erano 1
vio 1
gé 1
aged 1
▁building 1
▁allerdings 1
▁kam 1
▁Sud 1
ative 1
chter 1
alles 1
▁dispos 1
▁semplice 1
bare 1
▁Mein 1
▁folg 1
▁seen 1
▁appe 1
cano 1
▁trattamento 1
▁Repub 1
▁autour 1
▁double 1
mö 1
▁Blog 1
▁pose 1
activ 1
5% 1
stück 1
▁proje 1
▁cum 1
▁collabora 1
▁rispos 1
▁HD 1
▁incon 1
Or 1
▁review 1
▁dinero 1
▁sécurité 1
▁pisc 1
rière 1
▁rép 1
▁relationship 1
▁Beit 1
▁meas 1
▁concept 1
▁necessario 1
ciales 1
▁certific 1
orial 1
▁Ul 1
▁scelta 1
verte 1
▁distint 1
edes 1
olesc 1
äche 1
▁condition 1
▁Mark 1
▁agra 1
cola 1
ives 1
fully 1
▁loin 1
ny 1
del 1
cía 1
▁forum 1
▁troppo 1
▁Free 1
zos 1
ually 1
▁Cur 1
▁message 1
▁environment 1
▁Work 1
▁reading 1
ania 1
▁effettu 1
▁writing 1
▁Dist 1
▁programme 1
▁Tim 1
▁hizo 1
▁spaz 1
▁Bern 1
raum 1
▁various 1
▁observ 1
▁sl 1
non 1
UE 1
ark 1
uns 1
▁dès 1
▁sola 1
bez 1
▁Ol 1
▁ros 1
▁comprom 1
▁stock 1
▁Jack 1
▁paci 1
▁provides 1
orer 1
esper 1
▁consecu 1
-4 1
heiten 1
lici 1
poca 1
▁Buen 1
▁engine 1
▁gehör 1
arten 1
▁posibilidad 1
▁mention 1
▁legal 1
▁ocur 1
▁companies 1
▁almeno 1
▁capacidad 1
arbeitung 1
▁Vors 1
▁entsprech 1
▁speak 1
▁rende 1
rance 1
istiche 1
▁Unidos 1
▁recommend 1
▁rig 1
▁inclu 1
▁rè 1
tänd 1
lock 1
▁considera 1
▁bois 1
27 1
▁Cli 1
▁Denn 1
▁vite 1
▁Mai 1
fel 1
▁Argent 1
▁prezzo 1
▁Bad 1
▁ecc 1
▁pourrait 1
▁migliori 1
▁Michael 1
▁IP 1
▁professional 1
▁qualcosa 1
▁solutions 1
▁segundo 1
▁Lat 1
▁technology 1
▁uffici 1
pción 1
▁caract 1
▁condiciones 1
wa 1
rug 1
▁effica 1
ändern 1
▁Wel 1
▁objet 1
▁nuevos 1
21 1
▁male 1
▁dichi 1
▁paper 1
▁Comme 1
führung 1
▁Cali 1
▁Tom 1
▁unterschied 1
antit 1
▁completamente 1
▁compagn 1
ueil 1
▁Hab 1
▁millions 1
▁Festival 1
▁diseño 1
▁save 1
▁Nic 1
▁médic 1
▁siguiente 1
though 1
▁sollten 1
▁nutri 1
▁Geschichte 1
lad 1
▁primi 1
▁diritto 1
vit 1
▁milit 1
▁sche 1
▁claim 1
ecu 1
▁Alors 1
▁algún 1
▁eje 1
leb 1
▁luogo 1
ief 1
▁mayoría 1
▁dagli 1
▁genere 1
▁dor 1
▁hope 1
ingo 1
▁impos 1
▁neben 1
▁heart 1
tene 1
▁nehmen 1
▁Hel 1
▁taking 1
▁plein 1
▁training 1
▁disfrut 1
▁unterstüt 1
▁Commun 1
▁journée 1
▁sentido 1
uración 1
▁acceso 1
rol 1
▁Einsatz 1
esehen 1
▁audio 1
dien 1
▁remar 1
▁sviluppo 1
▁Just 1
iers 1
▁types 1
▁punti 1
▁Bis 1
▁Anche 1
▁verk 1
▁provo 1
▁Zug 1
▁Business 1
▁anything 1
▁amis 1
▁rappresent 1
▁bib 1
▁South 1
▁dejar 1
▁frequ 1
▁Maria 1
▁senso 1
▁Fuß 1
▁doll 1
▁pain 1
2) 1
▁direction 1
▁consigli 1
hof 1
▁cantidad 1
heure 1
▁Gemein 1
▁pul 1
▁Av 1
▁motivo 1
orre 1
▁uomini 1
▁acer 1
.[ 1
▁whether 1
▁milioni 1
▁santé 1
-, 1
▁preg 1
▁strong 1
hone 1
▁Count 1
ficie 1
▁marca 1
▁gradu 1
▁approach 1
▁derechos 1
CO 1
lei 1
▁Zwe 1
▁gestione 1
ül 1
bour 1
▁reach 1
▁nouvelles 1
tate 1
iscono 1
▁ampli 1
▁distrib 1
▁mission 1
▁expéri 1
bereich 1
▁dür 1
▁señal 1
▁fondament 1
▁6. 1
5) 1
▁passé 1
agit 1
▁relacion 1
elves 1
▁pourquoi 1
cter 1
▁office 1
▁white 1
▁histor 1
▁games 1
ählt 1
range 1
▁transfer 1
umenti 1
AB 1
▁bew 1
▁stress 1
▁author 1
▁meisten 1
▁disponible 1
▁spend 1
redi 1
▁imagen 1
onte 1
▁either 1
aca 1
▁Bi 1
▁stay 1
▁plu 1
▁italiana 1
hu 1
▁cherche 1
▁actividad 1
achten 1
▁Ven 1
achsen 1
▁options 1
▁komple 1
▁meta 1
▁nuevas 1
aging 1
▁motiv 1
▁titre 1
▁quite 1
▁propre 1
▁membres 1
welt 1
▁camera 1
▁forse 1
cs 1
▁evalu 1
ungere 1
6) 1
▁rédu 1
▁Android 1
histoire 1
hel 1
▁Dio 1
▁casos 1
▁Jahres 1
▁Twitter 1
orsa 1
▁mig 1
▁property 1
gaben 1
▁yeux 1
zept 1
▁Nap 1
▁bede 1
▁producto 1
▁ayuda 1
▁State 1
cito 1
▁Ay 1
mel 1
▁completo 1
anne 1
▁précis 1
▁Website 1
▁ball 1
▁quienes 1
▁flex 1
▁contempor 1
▁problème 1
▁Situ 1
▁marché 1
▁fich 1
indung 1
tat 1
▁letto 1
test 1
▁abil 1
inación 1
lit 1
Ne 1
équ 1
▁regul 1
▁dog 1
▁terror 1
▁concep 1
▁politica 1
▁travel 1
▁proces 1
▁parler 1
▁33 1
œur 1
▁Bib 1
illa 1
▁five 1
▁scuola 1
▁EU 1
▁North 1
▁bekommen 1
▁cav 1
ctamente 1
ished 1
▁gast 1
oga 1
▁Itali 1
▁Geschäfts 1
éti 1
▁appre 1
zel 1
éis 1
▁worden 1
ár 1
change 1
▁fundament 1
▁dernière 1
▁Ya 1
emment 1
ugen 1
▁comporta 1
vesti 1
▁leicht 1
29 1
▁party 1
▁close 1
▁Center 1
▁AR 1
▁sce 1
cordo 1
▁communication 1
▁character 1
▁pages 1
igi 1
▁stim 1
▁televis 1
▁cool 1
▁energy 1
▁eigentlich 1
▁fase 1
indet 1
gin 1
▁rein 1
▁heure 1
denti 1
tty 1
tically 1
▁Please 1
▁petits 1
▁stabil 1
▁vrai 1
▁settembre 1
eras 1
▁evento 1
▁machine 1
▁Ali 1
▁Neu 1
▁différents 1
▁später 1
Is 1
▁analy 1
▁further 1
▁produzione 1
alizar 1
▁Cook 1
▁Francis 1
▁detta 1
▁appare 1
▁inj 1
änner 1
äuf 1
▁Test 1
▁plate 1
▁méd 1
har 1
mbH 1
▁ihnen 1
▁sagen 1
▁resultados 1
▁consul 1
▁sentir 1
▁siano 1
▁informations 1
▁cio 1
verse 1
▁Tage 1
▁half 1
▁Dabei 1
âte 1
▁novel 1
▁instru 1
iesa 1
GB 1
▁jun 1
▁oppure 1
▁Mess 1
lege 1
▁Gel 1
enk 1
▁extrem 1
azioni 1
zus 1
▁Oper 1
▁strada 1
1) 1
▁linea 1
▁videos 1
area 1
▁Leg 1
▁plaisir 1
▁Arm 1
lem 1
▁poner 1
78 1
▁Partner 1
▁principio 1
▁estamos 1
▁Bru 1
▁pagina 1
▁coordin 1
▁techn 1
▁necesario 1
▁ricord 1
▁segunda 1
auft 1
▁nazionale 1
icano 1
erk 1
▁enor 1
▁Questa 1
▁Oli 1
▁représent 1
orted 1
▁Groß 1
▁responsable 1
▁tarde 1
▁Sus 1
cchio 1
assi 1
ieur 1
▁gouvern 1
▁Ev 1
titude 1
▁mel 1
▁techniques 1
dom 1
icana 1
▁wich 1
▁irgend 1
itaria 1
endes 1
▁400 1
▁principales 1
▁bisogno 1
▁clima 1
pace 1
ítulo 1
▁agre 1
▁tari 1
▁term 1
▁toi 1
▁patients 1
▁Flor 1
▁compris 1
▁avis 1
ox 1
▁ama 1
▁creo 1
▁Uns 1
vera 1
agine 1
mont 1
▁function 1
esto 1
▁genre 1
▁línea 1
warz 1
▁colore 1
▁presenti 1
33 1
bio 1
▁Log 1
▁finanzi 1
amin 1
vore 1
▁zeigt 1
alista 1
▁Mel 1
▁arte 1
ática 1
affen 1
▁rang 1
▁weniger 1
▁Herr 1
▁problemi 1
entación 1
▁presenza 1
▁spazio 1
▁Book 1
▁Veranst 1
▁calcul 1
▁conto 1
▁hy 1
▁album 1
▁rock 1
▁pourra 1
▁vuole 1
▁découvrir 1
rí 1
▁transport 1
▁Amazon 1
▁Ley 1
▁plans 1
cm 1
▁respecto 1
Univers 1
▁hot 1
tags 1
▁archite 1
cies 1
▁saison 1
▁prépar 1
▁rele 1
▁veut 1
lungs 1
▁AC 1
▁internation 1
▁conform 1
▁Ru 1
▁Weiter 1
lez 1
▁aucun 1
▁motor 1
▁America 1
▁implement 1
MA 1
▁required 1
▁appel 1
viamente 1
▁esos 1
▁öff 1
▁Minuten 1
▁clientes 1
▁5, 1
ñana 1
▁ofrece 1
ionales 1
▁keinen 1
▁conso 1
▁areas 1
lash 1
▁almost 1
räge 1
icken 1
enses 1
▁audi 1
▁accep 1
▁effici 1
▁told 1
▁Winter 1
▁everyone 1
▁Ir 1
▁verde 1
▁successo 1
▁Mol 1
▁Material 1
ículos 1
▁oct 1
xis 1
▁semble 1
▁provided 1
▁issue 1
▁mesure 1
▁Dec 1
▁June 1
▁graph 1
anken 1
▁joue 1
▁bat 1
▁tä 1
ampo 1
▁esclus 1
tati 1
▁automa 1
ailleurs 1
▁Durante 1
▁verschiedenen 1
genommen 1
▁designed 1
▁decor 1
udo 1
▁partner 1
▁perchè 1
fia 1
▁lorsque 1
▁rate 1
▁Viel 1
leben 1
▁chac 1
▁lei 1
▁prove 1
▁Here 1
▁conti 1
othe 1
▁Christian 1
▁intellig 1
boten 1
▁Up 1
▁luch 1
▁See 1
▁Prem 1
▁sit 1
lac 1
ators 1
cato 1
▁While 1
▁plaz 1
ísticas 1
▁fanno 1
▁cali 1
tails 1
▁parfois 1
▁produce 1
▁Fem 1
:30 1
▁Get 1
arle 1
▁Pop 1
▁Neben 1
▁.... 1
▁estudio 1
▁guy 1
▁Canada 1
Die 1
▁europé 1
▁inoltre 1
▁section 1
▁Sab 1
▁nuestras 1
▁inizia 1
▁pueblo 1
▁kil 1
arr 1
▁entire 1
amientos 1
▁raccol 1
▁cucina 1
▁GmbH 1
▁cuanto 1
baren 1
▁Sant 1
▁Ist 1
▁Wahl 1
▁Ergeb 1
▁dete 1
▁Gold 1
▁domici 1
reiche 1
▁intent 1
aison 1
▁Loc 1
ève 1
▁interv 1
▁AP 1
▁Artikel 1
isé 1
▁amigos 1
▁Verfügung 1
▁thé 1
appro 1
reas 1
▁Sac 1
arme 1
▁pasa 1
▁Casa 1
▁letter 1
cipa 1
▁dipl 1
▁Nicht 1
▁March 1
▁clear 1
mand 1
▁population 1
▁Blick 1
uda 1
▁página 1
▁Vill 1
▁vendita 1
▁primar 1
▁loi 1
▁systems 1
▁vog 1
▁XX 1
▁send 1
▁Energie 1
▁marque 1
▁formul 1
▁zwe 1
▁vient 1
fortable 1
▁raff 1
rosoft 1
▁tell 1
▁religi 1
rement 1
▁giovani 1
▁haya 1
▁aplic 1
▁camino 1
▁condizioni 1
▁ottobre 1
▁Beruf 1
▁torn 1
mis 1
▁participa 1
▁Berg 1
▁stellen 1
voli 1
▁avuto 1
▁miemb 1
▁Reise 1
▁manufact 1
Be 1
▁totale 1
OD 1
wers 1
▁tienes 1
▁photograph 1
▁Rec 1
▁hombres 1
▁Sig 1
▁hai 1
ival 1
▁edifici 1
▁valore 1
mais 1
hum 1
▁impact 1
▁volume 1
▁hacen 1
▁Bio 1
▁bastante 1
cop 1
▁Ga 1
▁includes 1
stead 1
▁ras 1
viembre 1
▁trying 1
▁especially 1
▁books 1
agt 1
quelle 1
▁correspond 1
▁Vir 1
spiel 1
ccio 1
anning 1
▁needed 1
▁hol 1
▁adel 1
genes 1
lais 1
▁Tal 1
▁dre 1
▁Provin 1
▁musica 1
▁Anti 1
iously 1
die 1
▁dicho 1
▁choc 1
▁ebenfalls 1
▁problems 1
door 1
han 1
▁34 1
▁Antonio 1
▁leader 1
▁erz 1
▁risult 1
▁acced 1
▁formazione 1
illed 1
▁His 1
wser 1
▁eher 1
▁Herz 1
▁voi 1
▁Tras 1
▁House 1
viso 1
▁œ 1
▁AD 1
▁fid 1
▁mente 1
▁Mär 1
▁fan 1
▁puesto 1
dé 1
fie 1
rument 1
aya 1
▁metal 1
ächst 1
ctores 1
▁taken 1
itel 1
atal 1
▁Raum 1
▁obser 1
blick 1
ivent 1
fet 1
▁comprend 1
▁Flug 1
▁daher 1
▁Netz 1
▁ging 1
▁customers 1
ichtung 1
▁batt 1
häng 1
▁jan 1
▁Comment 1
frei 1
▁vision 1
rami 1
kauf 1
▁Jour 1
essere 1
▁Markt 1
▁Bur 1
▁vielleicht 1
▁fosse 1
▁bot 1
enschutz 1
▁és 1
▁hätte 1
▁comune 1
ads 1
▁Angeb 1
IE 1
▁third 1
▁pochi 1
▁habl 1
▁ata 1
▁simply 1
▁venir 1
▁Landes 1
▁hig 1
ource 1
▁schwer 1
ensemble 1
▁inm 1
▁Presidente 1
gie 1
▁Ged 1
▁Exp 1
oure 1
▁Spr 1
guien 1
▁verste 1
▁locale 1
▁chambre 1
▁zweit 1
▁estoy 1
▁anunci 1
▁popul 1
▁Hal 1
dess 1
▁mini 1
ov 1
uring 1
▁usuarios 1
▁Cop 1
ämp 1
enas 1
▁Technolog 1
▁Frances 1
ól 1
agner 1
▁meinen 1
▁route 1
ulos 1
▁único 1
95 1
▁2006 1
ureau 1
▁vesti 1
rin 1
▁stop 1
▁shall 1
▁Personen 1
▁Tem 1
anna 1
assa 1
▁identific 1
rist 1
rong 1
▁invit 1
▁however 1
atoria 1
▁cinco 1
▁nord 1
▁modelo 1
▁giugno 1
▁occup 1
▁edad 1
▁importantes 1
tscha 1
▁quattro 1
▁zusätz 1
▁descub 1
itting 1
ds 1
▁commercial 1
▁assol 1
tigung 1
wendung 1
▁wahr 1
uelles 1
ried 1
▁tramite 1
tein 1
7) 1
▁else 1
▁mensa 1
▁Barcel 1
üler 1
▁Augen 1
▁histori 1
▁claro 1
▁sollen 1
▁rad 1
▁2018. 1
▁kannst 1
▁ases 1
▁peux 1
issima 1
8) 1
▁Of 1
entazione 1
▁Dra 1
▁acab 1
▁struttura 1
▁mach 1
▁ayant 1
vais 1
▁probably 1
▁amount 1
%. 1
▁DEL 1
▁matt 1
▁States 1
anca 1
▁andare 1
▁wanted 1
▁mail 1
icherung 1
▁7. 1
▁piace 1
oo 1
ètres 1
▁continua 1
ifica 1
▁scon 1
▁adj 1
▁infe 1
▁Group 1
▁generale 1
élé 1
▁bran 1
▁From 1
▁AG 1
auteur 1
▁acompañ 1
estro 1
ignet 1
▁aurait 1
lies 1
▁Smart 1
▁propio 1
-5 1
mor 1
ampf 1
▁challen 1
▁giornata 1
usión 1
board 1
▁tap 1
▁allora 1
cuno 1
▁excellent 1
▁phone 1
enf 1
▁rum 1
▁mí 1
▁varias 1
óvil 1
▁dio 1
▁verwend 1
laf 1
▁Rod 1
teller 1
tió 1
▁wegen 1
:0 1
ostante 1
▁Resta 1
cce 1
▁circu 1
▁Wei 1
▁store 1
▁Peter 1
▁2018, 1
▁Master 1
▁AM 1
zess 1
yth 1
▁move 1
▁pier 1
▁vehic 1
ppia 1
vía 1
▁Mitarbeiter 1
énd 1
▁dat 1
▁fís 1
chas 1
▁bru 1
▁48 1
▁Nue 1
nam 1
▁rather 1
▁septem 1
▁écrit 1
▁Körper 1
▁revis 1
36 1
▁scrit 1
ering 1
gies 1
kung 1
rido 1
▁percorso 1
▁Haut 1
▁klar 1
▁Site 1
çu 1
iff 1
▁soy 1
presa 1
▁Produkt 1
▁Grö 1
uvo 1
▁Rock 1
▁London 1
▁bott 1
▁Qui 1
▁svilupp 1
ING 1
ptiembre 1
▁miles 1
▁medios 1
▁dispar 1
▁swe 1
▁ensuite 1
érique 1
▁escuch 1
▁len 1
▁wait 1
▁papel 1
unts 1
▁court 1
▁pasar 1
hes 1
zeichnet 1
▁migliore 1
▁ningún 1
olari 1
ml 1
▁riferimento 1
▁luz 1
▁autant 1
▁sexy 1
▁deben 1
▁testa 1
ultura 1
▁rete 1
utas 1
▁organizz 1
▁éc 1
▁soon 1
▁magni 1
onas 1
▁true 1
▁cut 1
▁surface 1
lled 1
▁pretty 1
▁Div 1
▁verg 1
ju 1
where 1
ctiva 1
▁Grün 1
▁38 1
▁Aqu 1
▁Mig 1
▁settimana 1
lication 1
ôtel 1
▁knowledge 1
immt 1
utet 1
▁Zur 1
ieder 1
▁Day 1
kel 1
pati 1
▁wissen 1
▁producción 1
▁Ap 1
▁mañana 1
▁upon 1
▁paz 1
▁dau 1
▁paese 1
olu 1
▁Dieser 1
annte 1
▁Ques 1
omma 1
▁constit 1
stellen 1
▁technique 1
fiche 1
▁Octo 1
▁quantit 1
▁events 1
▁employ 1
▁luce 1
IB 1
erd 1
▁Projekt 1
wes 1
▁significant 1
▁voyage 1
▁gek 1
▁stile 1
▁últimos 1
▁cuore 1
▁gehört 1
▁matter 1
▁Most 1
adamente 1
▁Aff 1
▁rapporto 1
▁molte 1
ronom 1
▁Civ 1
arti 1
▁titolo 1
▁mezzo 1
naio 1
▁intéress 1
▁Kontakt 1
▁credit 1
▁Max 1
▁pelle 1
▁journal 1
onna 1
gem 1
▁Software 1
▁langu 1
▁cierto 1
llig 1
▁élé 1
,... 1
▁couleur 1
▁sieht 1
▁Sommer 1
erei 1
▁completa 1
▁costo 1
▁primero 1
▁Sor 1
ctivo 1
tente 1
anzen 1
more 1
▁sound 1
▁escu 1
▁Ihrem 1
▁posizione 1
▁superior 1
utzt 1
▁Auft 1
SS 1
▁Thomas 1
▁Kap 1
▁Interna 1
▁septembre 1
zul 1
▁shows 1
▁Martin 1
▁pueda 1
▁expos 1
▁ellas 1
illeurs 1
▁mars 1
▁frag 1
tile 1
▁Cela 1
▁Dieu 1
elles 1
▁bord 1
▁immobili 1
▁simplement 1
34 1
▁erre 1
gado 1
▁spielen 1
aime 1
▁ment 1
▁disponibles 1
CA 1
ggio 1
ième 1
▁sexual 1
▁Stunden 1
uncia 1
gues 1
▁Quando 1
▁Gegen 1
views 1
posición 1
▁Rob 1
mediate 1
mod 1
▁quiere 1
len 1
ünst 1
▁Fort 1
▁grands 1
▁cabo 1
▁precios 1
▁Wes 1
▁dimost 1
▁Phili 1
opera 1
▁Radio 1
▁Microsoft 1
titud 1
▁structure 1
▁physi 1
bbra 1
▁Mos 1
▁gé 1
zeitig 1
▁arbeit 1
▁yourself 1
▁reconoci 1
▁positive 1
▁Lös 1
▁achie 1
▁bir 1
termin 1
▁vidéo 1
▁psic 1
▁besteht 1
▁takes 1
▁perspe 1
ritten 1
▁bella 1
▁música 1
▁travaux 1
▁words 1
▁ways 1
▁liste 1
▁user 1
minist 1
ahn 1
vée 1
▁sagt 1
▁info 1
▁progress 1
endas 1
▁fire 1
▁clic 1
▁viaggio 1
▁hu 1
▁palabras 1
nd 1
▁contain 1
▁evitar 1
ford 1
asta 1
laub 1
▁Problem 1
▁realmente 1
▁valuta 1
▁chef 1
▁crear 1
▁Sonn 1
▁locali 1
▁influen 1
alismo 1
▁estab 1
rane 1
estas 1
▁investigación 1
schein 1
▁coming 1
▁alte 1
ium 1
▁étant 1
cati 1
▁security 1
▁lik 1
▁fum 1
▁amaz 1
▁mostra 1
▁option 1
▁werde 1
▁trotz 1
▁bekannt 1
▁controllo 1
▁wid 1
▁Champ 1
▁pob 1
▁articles 1
▁présente 1
▁Schne 1
▁King 1
▁Schweiz 1
▁CO 1
▁applica 1
avait 1
▁haciendo 1
geh 1
có 1
▁matri 1
▁electrón 1
▁Werk 1
▁nothing 1
▁prime 1
▁favore 1
lose 1
▁PRO 1
▁profesional 1
▁gross 1
/200 1
▁certo 1
Mail 1
▁différentes 1
▁police 1
ép 1
gencia 1
▁cog 1
▁llevar 1
▁nächsten 1
▁Eig 1
tista 1
▁organizza 1
achs 1
▁cot 1
▁contrario 1
▁ormai 1
yal 1
NA 1
▁guida 1
zü 1
etas 1
▁Gri 1
▁demás 1
▁Bill 1
▁einzel 1
▁Class 1
anim 1
tta 1
▁democra 1
▁Ale 1
▁montag 1
▁bisher 1
▁education 1
▁envi 1
▁sofort 1
▁happy 1
▁Dienst 1
▁nuit 1
fäh 1
▁assic 1
▁applications 1
ition 1
fest 1
▁inside 1
ZION 1
▁proto 1
▁created 1
▁sagte 1
▁bleibt 1
SA 1
▁plante 1
▁Rep 1
ienen 1
▁Dre 1
▁bueno 1
▁istitu 1
contre 1
çaise 1
▁leggere 1
kom 1
rü 1
venes 1
▁lanz 1
▁ultimi 1
▁Region 1
▁places 1
▁gal 1
nit 1
▁dynam 1
▁buona 1
fied 1
▁Bürger 1
cement 1
▁leaders 1
will 1
▁Conf 1
▁Nun 1
▁IV 1
▁sir 1
TER 1
▁confir 1
▁Comune 1
▁Open 1
▁herrami 1
▁probable 1
▁Services 1
▁cie 1
was 1
bec 1
▁glau 1
ghi 1
▁deutlich 1
▁nulla 1
▁imposs 1
▁dicembre 1
▁late 1
lus 1
agog 1
iciones 1
▁conci 1
cting 1
3) 1
▁relation 1
▁Hamb 1
erait 1
▁Ess 1
entlichen 1
▁received 1
▁.: 1
▁role 1
▁Japan 1
▁confirm 1
▁arr 1
▁wes 1
▁Willi 1
▁changes 1
ruch 1
neo 1
▁schle 1
▁station 1
bote 1
atoire 1
iesen 1
▁circ 1
bracht 1
▁Management 1
▁ingredi 1
▁caf 1
SE 1
▁fecha 1
▁likely 1
▁Forum 1
▁exact 1
▁Administra 1
▁Dir 1
indust 1
fication 1
▁varia 1
▁quier 1
▁speciali 1
▁Pie 1
▁propia 1
▁aplicación 1
▁ign 1
gehen 1
▁encour 1
▁grave 1
▁sost 1
▁Gab 1
▁details 1
▁sle 1
▁Lang 1
▁leider 1
▁memoria 1
arbeiten 1
▁Back 1
enez 1
▁distin 1
▁adecu 1
statt 1
▁mut 1
▁risk 1
▁:) 1
uomo 1
▁Villa 1
▁pin 1
▁tempi 1
▁erg 1
▁nouveaux 1
äf 1
▁statis 1
▁recursos 1
▁musique 1
▁sorte 1
▁bras 1
glieder 1
tems 1
▁Hi 1
▁pesar 1
glia 1
ultimo 1
▁influ 1
head 1
▁gee 1
homme 1
▁deutschen 1
▁buon 1
▁moyen 1
▁parties 1
oline 1
▁entreprises 1
▁cookies 1
▁senci 1
▁nice 1
▁mens 1
▁encuent 1
▁located 1
bus 1
▁encar 1
▁march 1
▁Orig 1
tello 1
▁excel 1
▁Dom 1
▁voit 1
▁cau 1
▁jeux 1
▁cora 1
▁richiesta 1
▁profesionales 1
▁Produkte 1
▁situazione 1
▁luglio 1
▁natura 1
▁fotos 1
▁James 1
ilosoph 1
▁added 1
▁Holz 1
▁sales 1
leitung 1
▁running 1
ähl 1
▁clin 1
▁treatment 1
▁cuales 1
▁Big 1
▁complex 1
▁Fest 1
▁Schl 1
▁rendre 1
▁ragazzi 1
▁Lehr 1
▁sûr 1
▁kids 1
▁NO 1
ático 1
▁redes 1
▁Familie 1
▁figure 1
▁employe 1
▁Trib 1
UM 1
tor 1
▁financial 1
▁farm 1
▁aire 1
dies 1
licaciones 1
▁mark 1
▁vendre 1
▁alguien 1
▁incorpor 1
▁soddis 1
▁breve 1
▁insurance 1
▁specta 1
▁partire 1
▁budget 1
▁Hers 1
halte 1
umin 1
▁jedem 1
▁isn 1
▁TH 1
▁Woche 1
▁seems 1
Me 1
▁Pen 1
▁circul 1
▁innerhalb 1
▁principale 1
fense 1
▁tanti 1
uz 1
hington 1
▁policy 1
▁leer 1
..... 1
acqua 1
▁debido 1
▁usually 1
0. 1
▁darf 1
▁Ped 1
▁heiß 1
coming 1
▁Associ 1
▁piccolo 1
▁transform 1
abilité 1
38 1
ented 1
▁Garten 1
▁former 1
▁vul 1
▁town 1
lation 1
▁vive 1
▁ganze 1
redit 1
▁ejerci 1
▁chem 1
▁feu 1
cate 1
▁iPhone 1
▁argent 1
▁Rem 1
▁Ly 1
▁Prote 1
▁avanz 1
bahn 1
▁rapidement 1
BA 1
▁tratamiento 1
etes 1
▁octo 1
▁verd 1
▁Valle 1
▁erfol 1
▁Californ 1
▁India 1
▁III 1
▁sess 1
▁consumo 1
▁(4 1
▁totalmente 1
▁conqu 1
▁mental 1
▁jem 1
▁ensemble 1
▁conseguir 1
▁abge 1
▁comprar 1
▁estilo 1
▁Stato 1
▁permette 1
ilen 1
▁village 1
▁calle 1
ermo 1
▁darüber 1
▁Leit 1
▁accom 1
vest 1
▁envo 1
▁learning 1
▁Io 1
▁appropri 1
▁outside 1
ífic 1
▁Gas 1
iettivo 1
▁stagione 1
▁doute 1
bió 1
▁XV 1
▁Kopf 1
▁difí 1
▁refle 1
▁resultado 1
▁Jose 1
▁wollte 1
kra 1
▁Well 1
▁moda 1
▁wal 1
0, 1
▁octubre 1
▁forward 1
▁complet 1
▁sélection 1
▁according 1
itato 1
▁trip 1
▁nutzen 1
tur 1
▁bitte 1
▁möchten 1
ondo 1
▁feature 1
alisation 1
▁Fund 1
▁direttamente 1
inaus 1
▁word 1
▁Qualität 1
▁acciones 1
▁président 1
▁entsche 1
ichtet 1
right 1
▁Entwicklung 1
▁italiani 1
▁mondiale 1
▁Austral 1
▁última 1
enzi 1
▁Dal 1
erap 1
unkte 1
odes 1
▁choose 1
▁noir 1
cast 1
▁Media 1
reng 1
▁étudi 1
Com 1
▁Lors 1
▁step 1
ridge 1
▁immagini 1
▁concur 1
▁duda 1
▁Pati 1
▁tér 1
arf 1
▁agu 1
▁quatre 1
▁risultati 1
▁compli 1
▁entrada 1
▁creare 1
occasion 1
▁tomar 1
▁sala 1
èrent 1
arnos 1
fühl 1
32 1
affe 1
tsch 1
▁noviembre 1
▁Pic 1
▁coinvol 1
gemein 1
EP 1
▁Verein 1
▁relativ 1
coles 1
▁porn 1
▁cannot 1
cro 1
▁Pat 1
BC 1
▁ling 1
▁Giov 1
▁convin 1
cte 1
▁possa 1
▁pratique 1
▁disposizione 1
▁Pers 1
istente 1
▁estim 1
▁death 1
▁Carlos 1
▁enfin 1
▁enfermed 1
▁anyone 1
▁janvier 1
aura 1
haft 1
▁Kra 1
▁desider 1
stre 1
▁prise 1
▁alcanz 1
rog 1
▁divis 1
giare 1
rès 1
▁nombreuses 1
wechs 1
▁frei 1
Ex 1
▁gesam 1
▁Angebot 1
▁display 1
umes 1
▁pregunt 1
▁Download 1
▁Hom 1
erez 1
handlung 1
▁July 1
▁bell 1
▁formación 1
▁fib 1
▁Programm 1
▁vino 1
Con 1
▁fras 1
▁Tas 1
pass 1
▁figura 1
▁feder 1
▁Abend 1
▁création 1
▁seguro 1
schnitt 1
cious 1
▁Hor 1
▁Auss 1
▁descar 1
▁Haupt 1
information 1
tober 1
▁piel 1
put 1
alyse 1
ardia 1
▁Kauf 1
fety 1
▁crimin 1
▁erwar 1
▁Ord 1
▁guerre 1
▁entro 1
parti 1
inazione 1
▁stellt 1
▁espec 1
▁behind 1
igkeiten 1
▁vente 1
▁Hy 1
▁October 1
▁deliver 1
glied 1
▁cara 1
geber 1
▁civil 1
▁dicie 1
▁histoire 1
▁matin 1
▁practice 1
DA 1
▁Nur 1
sehen 1
▁deg 1
crire 1
▁diciembre 1
▁ready 1
▁Barcelona 1
utili 1
▁Gesund 1
▁sería 1
origine 1
▁meinem 1
▁übers 1
▁English 1
▁ottenere 1
▁merci 1
▁Gast 1
▁deten 1
▁links 1
bene 1
▁testim 1
verture 1
▁Ori 1
▁adolesc 1
▁ask 1
Am 1
▁escrit 1
teilung 1
▁radic 1
óvenes 1
jahr 1
▁vib 1
▁efficace 1
▁fronte 1
-6 1
▁manos 1
retto 1
cked 1
▁públic 1
culo 1
abs 1
ädchen 1
▁Finanz 1
▁higher 1
aper 1
▁proyectos 1
▁Merci 1
univers 1
▁forza 1
▁drive 1
▁path 1
▁Cir 1
▁throughout 1
oltà 1
xima 1
▁member 1
▁cort 1
lisis 1
▁español 1
▁manual 1
▁spirit 1
▁tuvo 1
tish 1
▁expla 1
▁lavora 1
▁superficie 1
alisi 1
rief 1
▁créer 1
▁120 1
▁medida 1
istencia 1
▁2017, 1
', 1
▁hablar 1
▁dado 1
▁assist 1
▁sugges 1
TI 1
▁Argentina 1
▁enfr 1
lir 1
cida 1
▁éx 1
▁oui 1
▁kennen 1
▁varie 1
see 1
▁Ara 1
ensione 1
▁semi 1
onds 1
▁Freund 1
▁joven 1
▁End 1
▁Parte 1
baut 1
corr 1
▁Gä 1
▁gestión 1
▁quad 1
▁parts 1
▁erw 1
Sh 1
▁longue 1
▁monitor 1
▁neues 1
▁held 1
▁Restaur 1
ismus 1
ächlich 1
▁° 1
▁Männer 1
▁nadie 1
▁benö 1
orning 1
▁elev 1
▁UK 1
TS 1
▁increase 1
▁septiembre 1
arg 1
läss 1
▁Autor 1
▁sigue 1
Ch 1
meister 1
▁hair 1
▁6, 1
▁stage 1
▁vostro 1
▁Mur 1
teili 1
▁familiar 1
besch 1
98 1
gence 1
-) 1
▁Cin 1
▁2005 1
▁hast 1
▁lis 1
schutz 1
ught 1
▁morte 1
▁próximo 1
▁Anfang 1
▁Ham 1
▁speed 1
iddle 1
▁gouvernement 1
▁devono 1
▁alt 1
▁tercer 1
▁feed 1
▁8. 1
▁Personal 1
getto 1
▁Wi 1
▁Let 1
cenza 1
uler 1
ccia 1
▁tum 1
▁ly 1
ilà 1
onnes 1
oration 1
▁lien 1
▁lire 1
▁compra 1
mun 1
▁EL 1
▁mau 1
▁apoyo 1
▁coper 1
ancer 1
ándose 1
▁answer 1
▁spetta 1
▁souff 1
▁comunicación 1
▁Mari 1
▁inqu 1
bal 1
cidente 1
▁nostre 1
fallen 1
▁hinaus 1
▁esas 1
▁Miss 1
▁trabajar 1
▁Supp 1
▁dot 1
izar 1
ueill 1
▁stu 1
▁Damit 1
▁réc 1
acto 1
He 1
▁recent 1
cut 1
▁scen 1
▁frances 1
▁talk 1
▁recuer 1
▁aquellos 1
▁floor 1
sweise 1
▁kitchen 1
▁esperienza 1
▁longer 1
▁Text 1
▁Robert 1
▁asked 1
mitt 1
uh 1
▁aumento 1
besondere 1
▁diagnos 1
haupt 1
VD 1
▁(201 1
uba 1
orro 1
▁lux 1
▁Health 1
gesamt 1
▁laquelle 1
▁Stück 1
▁customer 1
▁octobre 1
▁certaines 1
▁ruolo 1
▁jud 1
▁Eltern 1
▁utile 1
▁oportunidad 1
▁bringen 1
▁Hinter 1
▁related 1
▁env 1
acción 1
itäten 1
▁nave 1
lungen 1
▁ensure 1
▁weeks 1
▁atte 1
▁collaborazione 1
▁gennaio 1
▁funktion 1
▁concre 1
▁pronto 1
▁volver 1
ising 1
▁actions 1
▁sog 1
▁LED 1
▁Entscheid 1
▁Notre 1
ública 1
umer 1
▁estruct 1
▁hear 1
▁Cru 1
▁Tür 1
▁cross 1
▁comunidad 1
▁muerte 1
ranken 1
▁Tit 1
▁10. 1
▁aziende 1
▁tent 1
▁capacità 1
illas 1
aving 1
ktor 1
iez 1
inaire 1
▁opportunity 1
▁rê 1
atory 1
▁décis 1
urazione 1
▁Dieses 1
cera 1
▁smo 1
hern 1
▁sensi 1
ourd 1
aking 1
▁lavori 1
▁décembre 1
cript 1
▁potential 1
tures 1
▁Motor 1
▁Sho 1
▁Guer 1
▁vivre 1
▁richies 1
fung 1
wür 1
razione 1
▁Via 1
▁hijos 1
▁disfrutar 1
▁envie 1
▁75 1
itto 1
▁Washington 1
odo 1
agu 1
▁certif 1
▁ahí 1
▁gau 1
▁utilizar 1
▁moderne 1
tiere 1
▁looks 1
▁terme 1
álisis 1
▁Street 1
▁Schüler 1
uk 1
gens 1
ommt 1
▁doivent 1
▁contras 1
fits 1
▁eta 1
érieure 1
▁rif 1
▁hil 1
▁spezie 1
▁student 1
▁rivol 1
iglie 1
gle 1
!) 1
▁medical 1
▁Nella 1
▁om 1
druck 1
▁crisis 1
▁ged 1
▁sean 1
▁err 1
▁win 1
▁fair 1
▁zeigen 1
▁Francisco 1
▁Lim 1
▁Dank 1
▁woman 1
▁puoi 1
finden 1
hood 1
adurch 1
article 1
arma 1
▁appena 1
▁jap 1
itazione 1
▁receive 1
▁bleiben 1
76 1
▁jede 1
▁Druck 1
pero 1
▁190 1
▁Job 1
▁pubbli 1
benso 1
uerto 1
izin 1
App 1
ancias 1
bbraio 1
▁muse 1
ingungen 1
zaciones 1
▁road 1
▁rapide 1
▁proc 1
▁Wal 1
48 1
▁Hilfe 1
▁américa 1
▁dirección 1
▁kaum 1
▁Höhe 1
inci 1
▁vois 1
-8 1
▁individu 1
▁Jac 1
▁importanti 1
▁agric 1
▁période 1
▁compati 1
▁eran 1
▁spie 1
▁Forsch 1
▁guar 1
▁science 1
▁parla 1
▁Oktober 1
▁prep 1
▁Informa 1
▁Green 1
▁California 1
▁Mom 1
▁bâ 1
▁juillet 1
clam 1
▁depos 1
idence 1
gión 1
▁terms 1
▁Inte 1
▁offen 1
▁occhi 1
▁skills 1
▁activities 1
▁vont 1
teca 1
▁Secret 1
▁interés 1
▁deep 1
▁Premi 1
▁multip 1
▁relax 1
ernen 1
▁siècle 1
▁cone 1
▁Unsere 1
▁Pet 1
▁mejorar 1
▁(2) 1
▁pil 1
▁película 1
▁Juni 1
aremos 1
hören 1
inté 1
▁eigene 1
▁nécessaire 1
▁passato 1
▁esté 1
▁processo 1
hés 1
venu 1
ritte 1
▁aucune 1
▁Table 1
▁plata 1
▁surve 1
▁loss 1
▁amazing 1
ised 1
▁partners 1
apia 1
ological 1
▁55 1
▁nello 1
▁documento 1
kosten 1
▁items 1
zzate 1
▁lives 1
▁miner 1
▁moto 1
ppa 1
▁servir 1
▁Power 1
ministrazione 1
▁personnel 1
▁click 1
▁currently 1
▁practic 1
▁colori 1
ground 1
roffen 1
▁vert 1
▁Kön 1
▁1000 1
tituto 1
▁remember 1
▁taille 1
▁First 1
treten 1
▁fünf 1
▁déclar 1
▁screen 1
program 1
▁announ 1
obil 1
▁adi 1
▁ital 1
ística 1
omi 1
ierto 1
▁Every 1
▁conn 1
▁written 1
▁spéci 1
▁risque 1
cipe 1
▁lleva 1
pons 1
iné 1
êmes 1
▁users 1
sex 1
▁Hist 1
formations 1
▁internazionale 1
riebs 1
▁jóvenes 1
▁Cle 1
▁Recht 1
▁Live 1
▁Monte 1
▁sold 1
▁frais 1
ración 1
▁acqua 1
▁transpar 1
▁ring 1
▁leave 1
▁Heim 1
halts 1
cidos 1
rió 1
▁gusto 1
▁muestra 1
▁relative 1
▁roman 1
▁facili 1
partement 1
orden 1
▁internacional 1
▁center 1
▁ubic 1
▁oben 1
cchia 1
▁Schutz 1
▁mantener 1
▁Gal 1
▁cabeza 1
▁Luis 1
iencia 1
▁podrá 1
▁guten 1
▁meeting 1
▁Según 1
’, 1
▁brill 1
▁built 1
▁cuid 1
▁riman 1
essor 1
▁Liv 1
▁cœur 1
▁command 1
▁Pla 1
▁Tar 1
▁acción 1
▁temporada 1
▁Inc 1
▁adul 1
▁ragazze 1
▁regar 1
▁buscar 1
minister 1
▁Glück 1
▁fro 1
▁particulier 1
▁Def 1
▁verschiedene 1
▁kne 1
siamo 1
asp 1
endencia 1
▁matière 1
untos 1
▁Pay 1
▁requis 1
quant 1
▁oil 1
▁preo 1
▁tourn 1
▁centrale 1
▁util 1
▁vamos 1
▁Ball 1
▁modello 1
▁Then 1
▁Marketing 1
▁latest 1
▁Ram 1
▁weiteren 1
▁capire 1
▁Millionen 1
▁Inde 1
▁ingles 1
▁write 1
usst 1
▁Kommun 1
▁COM 1
wel 1
▁reprodu 1
▁Luft 1
brar 1
▁depor 1
▁incluy 1
▁worth 1
import 1
▁diam 1
▁Steuer 1
▁entidad 1
▁sense 1
▁presque 1
▁coach 1
▁siglo 1
ality 1
▁exception 1
bank 1
▁siete 1
Mar 1
▁hid 1
▁Qué 1
▁riguarda 1
toria 1
▁energía 1
▁amen 1
▁deriv 1
▁julio 1
▁recently 1
▁prév 1
aster 1
▁cittadini 1
▁39 1
▁frü 1
imientos 1
▁comprendre 1
fuer 1
▁wide 1
▁modèle 1
▁additional 1
▁Zimmer 1
▁Francia 1
ika 1
▁Kn 1
▁chacun 1
▁Ciudad 1
▁Ahora 1
ystem 1
▁obras 1
ctors 1
acci 1
▁Kli 1
▁governo 1
schaften 1
inare 1
▁cargo 1
100 1
▁Namen 1
iko 1
▁rischio 1
richten 1
▁fans 1
▁Oh 1
▁aprile 1
▁aprend 1
miss 1
▁démar 1
abord 1
▁sugg 1
erà 1
▁panor 1
timmung 1
▁films 1
▁activités 1
osos 1
▁junio 1
▁37 1
▁suchen 1
mosph 1
unsch 1
▁incom 1
orb 1
▁Familien 1
▁halten 1
▁Daniel 1
ultad 1
▁veh 1
ips 1
▁domaine 1
umi 1
▁ST 1
stein 1
▁häuf 1
▁occasion 1
schule 1
▁traff 1
▁Suche 1
▁curso 1
▁festival 1
ibility 1
▁Grande 1
▁usuario 1
ágenes 1
▁entren 1
brero 1
rando 1
regist 1
DE 1
▁Jesus 1
▁Uno 1
íamos 1
▁prose 1
▁diseñ 1
▁Much 1
itaciones 1
▁accesso 1
▁güns 1
rs 1
▁laisser 1
▁Wand 1
dice 1
▁chap 1
▁obli 1
▁erk 1
isches 1
ctura 1
iennent 1
▁indem 1
▁nam 1
ova 1
▁Wert 1
arci 1
ède 1
▁gegenüber 1
▁réun 1
▁mayo 1
▁spl 1
▁comerci 1
weisen 1
▁utenti 1
▁verwendet 1
▁clienti 1
▁bege 1
▁Econom 1
PR 1
▁reserv 1
indest 1
▁eins 1
▁compañía 1
chein 1
▁associa 1
▁included 1
▁calend 1
▁representa 1
▁población 1
▁commit 1
▁erklär 1
itäts 1
▁proté 1
▁telefon 1
▁skin 1
geme 1
▁maggiore 1
▁bath 1
▁Einzel 1
** 1
▁7, 1
▁Wind 1
▁entreprise 1
▁rass 1
▁analysis 1
▁formato 1
ivos 1
▁parfa 1
▁subject 1
▁usar 1
▁tenido 1
▁donné 1
▁jouer 1
▁espos 1
tigi 1
▁pena 1
▁carre 1
▁eventi 1
ctu 1
▁dimin 1
riel 1
▁conserva 1
ming 1
▁María 1
▁hospital 1
▁(...) 1
▁Mem 1
roit 1
▁(5 1
▁konnten 1
▁Conta 1
▁affron 1
▁tub 1
▁contacto 1
▁plant 1
year 1
▁rue 1
65 1
▁Aunque 1
▁device 1
▁cristi 1
▁growth 1
ded 1
▁Auswahl 1
▁1/ 1
verb 1
▁versione 1
oglie 1
▁demon 1
▁empe 1
▁Quand 1
▁experiment 1
ertas 1
▁250 1
▁Cab 1
▁allí 1
▁einges 1
▁ded 1
▁seman 1
▁propiedad 1
▁française 1
▁fuerte 1
▁valeur 1
ency 1
unte 1
▁salir 1
▁fla 1
▁tech 1
rench 1
▁ingres 1
uramente 1
▁modifica 1
▁wa 1
▁segn 1
▁necesidad 1
▁Außer 1
tschafts 1
▁fini 1
olore 1
entreprise 1
▁immediate 1
inato 1
▁Maß 1
based 1
▁host 1
▁Más 1
irement 1
▁pari 1
▁vogli 1
▁January 1
oll 1
▁évid 1
▁Vertra 1
▁myself 1
▁subst 1
▁finalmente 1
▁dress 1
poque 1
lands 1
äte 1
▁ouv 1
▁0. 1
riger 1
▁précéd 1
▁Bou 1
atung 1
▁traitement 1
37 1
▁vera 1
▁comunicazione 1
volución 1
▁Gem 1
▁Soc 1
▁Solo 1
▁regel 1
▁Casino 1
▁Depuis 1
frage 1
▁bec 1
▁helfen 1
▁geb 1
▁master 1
▁primeros 1
iling 1
▁obtener 1
acer 1
▁anz 1
▁sty 1
▁easily 1
body 1
▁viaje 1
▁Ast 1
▁couleurs 1
▁terri 1
▁alter 1
▁manip 1
▁réseau 1
▁hervor 1
oux 1
▁equipos 1
▁Israel 1
▁choice 1
▁Grazie 1
▁sait 1
▁proporcion 1
▁kg 1
▁Sup 1
well 1
ordnung 1
aker 1
▁express 1
▁voiture 1
▁devo 1
▁cultural 1
▁Kont 1
%, 1
möglich 1
▁Educa 1
▁Ern 1
▁soddisf 1
▁temas 1
onz 1
▁puedo 1
wagen 1
▁résultats 1
▁Hallo 1
utamente 1
▁effetti 1
dió 1
actions 1
▁conoscere 1
pol 1
▁lower 1
▁Kam 1
▁Public 1
ierungs 1
PA 1
▁variety 1
▁saw 1
▁spo 1
wegen 1
oms 1
dienst 1
▁Medien 1
noch 1
hnung 1
▁carrera 1
▁locales 1
▁crois 1
▁vice 1
▁seek 1
▁educación 1
III 1
▁Marco 1
▁previsto 1
outer 1
▁Themen 1
▁Kur 1
▁cuar 1
▁enseñ 1
CC 1
▁avent 1
▁Polic 1
aide 1
▁2019 1
▁stessi 1
km 1
équipe 1
rante 1
▁Consiglio 1
▁ambient 1
▁prova 1
▁veloc 1
inet 1
▁reconna 1
▁Date 1
▁Lau 1
▁consenti 1
valu 1
aling 1
▁équipe 1
▁bank 1
▁welt 1
So 1
▁effective 1
▁thems 1
▁format 1
▁fuerza 1
chat 1
▁gara 1
▁clar 1
ariamente 1
▁mettere 1
gner 1
illé 1
▁Gren 1
▁2016, 1
ambio 1
▁Centre 1
▁9. 1
▁quickly 1
▁Colomb 1
▁originale 1
▁pequeño 1
▁deuxième 1
▁términ 1
nas 1
▁auth 1
▁itself 1
▁planta 1
▁droits 1
▁44 1
▁père 1
▁bás 1
▁USB 1
bly 1
▁disponibile 1
▁themselves 1
▁enfant 1
▁scorso 1
▁respuesta 1
▁DS 1
▁agré 1
▁Mir 1
▁board 1
oût 1
▁hands 1
utilisation 1
▁mismos 1
▁longtemps 1
▁corpor 1
fik 1
fera 1
▁unico 1
▁recomend 1
anzo 1
▁notte 1
▁risultato 1
pez 1
ibe 1
▁partecipa 1
oting 1
ologico 1
▁queda 1
▁gene 1
▁viagra 1
mäßig 1
lip 1
▁radi 1
chem 1
▁organización 1
▁projets 1
▁decision 1
▁veux 1
▁méth 1
▁tierra 1
ispens 1
▁Show 1
▁aggiorn 1
▁mani 1
▁Dich 1
▁auprès 1
▁ones 1
▁Mond 1
▁Erw 1
▁ojos 1
▁rôle 1
Bo 1
▁ale 1
▁riconosci 1
▁param 1
▁600 1
▁apre 1
▁cape 1
anes 1
▁recib 1
ressione 1
▁Licht 1
▁White 1
▁tecnología 1
zte 1
▁Stelle 1
▁fév 1
▁mots 1
▁área 1
ielt 1
▁conjunto 1
▁ON 1
▁2017. 1
▁bagno 1
änden 1
rieden 1
▁erhält 1
▁contenido 1
▁nucle 1
▁Chat 1
ancy 1
ulas 1
▁Elect 1
aves 1
▁casino 1
▁animal 1
▁chemin 1
▁vivo 1
▁deutsch 1
▁cases 1
▁presencia 1
tti 1
▁tiss 1
rans 1
▁dessen 1
▁oli 1
▁Energ 1
▁diffus 1
▁lé 1
▁maximum 1
rada 1
▁cach 1
alement 1
▁elabor 1
▁decide 1
▁mucha 1
après 1
azine 1
▁verific 1
▁fili 1
▁idé 1
zogen 1
▁2004 1
▁Zukunft 1
▁projects 1
▁alred 1
▁sowohl 1
inden 1
▁shi 1
▁construcción 1
▁destru 1
▁complic 1
▁parf 1
▁demasi 1
TV 1
tili 1
▁fé 1
▁Führ 1
▁Ton 1
BS 1
don 1
▁active 1
▁distance 1
▁Fotos 1
▁Übers 1
oler 1
klus 1
▁laisse 1
▁recibir 1
▁(200 1
▁arrive 1
eso 1
▁County 1
▁nem 1
▁President 1
▁ersch 1
▁sufici 1
▁December 1
▁hit 1
EA 1
▁Bras 1
rache 1
astro 1
gliche 1
▁consiste 1
▁Photo 1
cteurs 1
▁ester 1
▁adult 1
inc 1
▁Ero 1
▁führen 1
ppel 1
usso 1
▁alco 1
glesia 1
scht 1
▁Pod 1
▁voix 1
Qué 1
▁apply 1
▁salute 1
▁worked 1
▁cancer 1
▁zeit 1
▁vivi 1
▁Liebe 1
▁mane 1
▁Schn 1
metros 1
▁intend 1
▁Doc 1
▁leading 1
house 1
▁cib 1
31 1
tagram 1
▁difícil 1
iligen 1
▁safe 1
▁Lage 1
▁hall 1
▁petites 1
▁65 1
aries 1
▁squadra 1
rote 1
▁Dou 1
itzen 1
ampoco 1
▁DOC 1
▁incredi 1
▁fes 1
ota 1
cide 1
▁temperatura 1
ritti 1
▁decora 1
▁GR 1
▁oub 1
abilmente 1
accia 1
▁Secon 1
mark 1
ziehen 1
Wh 1
▁Note 1
erop 1
▁stark 1
▁Boden 1
letter 1
▁führt 1
▁principali 1
▁éxito 1
▁utilizzare 1
▁telé 1
▁paint 1
ichert 1
orse 1
▁ricev 1
▁lost 1
lesen 1
▁stream 1
▁giro 1
▁Nacht 1
ote 1
▁discover 1
▁contex 1
▁surpr 1
▁levels 1
▁recor 1
▁modalità 1
▁especialmente 1
▁mette 1
▁obbli 1
▁riesgo 1
▁instant 1
tesa 1
▁imágenes 1
▁abbia 1
▁maintain 1
▁pudi 1
ilia 1
▁Van 1
▁dolor 1
ège 1
▁edición 1
49 1
▁soggi 1
▁pregun 1
▁fic 1
▁scritto 1
▁serán 1
▁diverti 1
▁lograr 1
▁histó 1
hang 1
hein 1
wehr 1
orios 1
unal 1
chez 1
▁grupos 1
ologique 1
▁interesting 1
aren 1
▁Pala 1
▁Quel 1
pora 1
▁Cy 1
▁weight 1
▁sacri 1
rons 1
▁hijo 1
▁Nat 1
▁giovane 1
erai 1
▁rappresenta 1
▁valid 1
▁banc 1
yez 1
▁Hen 1
▁ability 1
▁milieu 1
▁elementos 1
ram 1
▁vacances 1
orien 1
▁nationale 1
▁März 1
▁voc 1
▁febbraio 1
UD 1
rik 1
rary 1
▁morning 1
gesetz 1
▁domanda 1
▁multiple 1
▁Sign 1
idea 1
▁somit 1
▁gioc 1
▁dein 1
▁utilizz 1
▁anders 1
▁cong 1
!!!! 1
▁Liefer 1
meld 1
▁präs 1
▁dovrebbe 1
lette 1
▁massimo 1
▁mín 1
attività 1
htt 1
istan 1
▁necesidades 1
erma 1
▁mehrere 1
▁Liber 1
▁encuentro 1
AF 1
cket 1
▁sun 1
▁añad 1
▁liegen 1
▁metri 1
▁Director 1
▁favorite 1
▁Mö 1
pps 1
▁ground 1
▁strat 1
sterreich 1
azienda 1
▁urb 1
▁medidas 1
jan 1
rest 1
▁respon 1
▁rare 1
estens 1
▁dorm 1
▁cioè 1
▁versión 1
▁necessary 1
▁erforder 1
▁spi 1
▁permis 1
▁Fi 1
inde 1
markt 1
▁Spieler 1
▁180 1
▁track 1
▁soluzione 1
▁semplic 1
▁streng 1
▁exten 1
▁Over 1
▁gemeinsam 1
▁green 1
▁veloci 1
nez 1
tadas 1
▁daran 1
▁aprove 1
▁utiliser 1
▁providing 1
▁strumenti 1
▁jardin 1
▁inau 1
▁programs 1
ällt 1
acco 1
rali 1
glés 1
▁enero 1
enster 1
▁Nä 1
édia 1
▁devrait 1
mie 1
▁Bud 1
▁invent 1
zig 1
isode 1
hold 1
▁language 1
elen 1
▁spa 1
chaften 1
teriores 1
▁Beitrag 1
▁directement 1
▁Dort 1
▁EUR 1
istema 1
▁crí 1
▁hors 1
▁München 1
▁ambos 1
▁wish 1
▁parmi 1
▁doctor 1
zuf 1
▁impar 1
▁tute 1
▁mère 1
▁chocol 1
▁Coll 1
▁restaurant 1
▁highly 1
crizione 1
pen 1
▁plazo 1
▁Inoltre 1
shop 1
oghi 1
▁bé 1
DS 1
▁vicino 1
▁parlare 1
lico 1
nehmens 1
▁Satur 1
install 1
▁avo 1
gers 1
uille 1
ultima 1
▁rights 1
▁mg 1
bajo 1
▁avaient 1
▁outil 1
▁Hoy 1
▁función 1
rais 1
unächst 1
▁Weise 1
▁ideale 1
▁todavía 1
▁summer 1
▁maniera 1
▁walk 1
▁opción 1
ächen 1
ichtlich 1
ruzione 1
▁libros 1
▁Alla 1
▁protagonista 1
arbeitet 1
▁2015, 1
▁crescita 1
▁picture 1
▁Data 1
▁puedan 1
▁Sau 1
▁divid 1
▁Gesellschaft 1
▁Deb 1
▁piece 1
▁allows 1
▁weg 1
▁hous 1
▁lanc 1
▁ninguna 1
▁deine 1
▁inicia 1
▁Esc 1
▁Sitz 1
▁busca 1
hunder 1
▁bureau 1
▁Inno 1
▁Eink 1
▁relazione 1
credi 1
rutt 1
▁participación 1
▁engag 1
satz 1
▁avril 1
▁Kultur 1
▁tenta 1
▁indispens 1
▁smartphone 1
ull 1
▁cookie 1
vertis 1
▁Central 1
▁prendere 1
▁adop 1
▁handelt 1
▁monta 1
▁tuoi 1
▁esfuer 1
▁interno 1
richtung 1
▁Thanks 1
alizado 1
auch 1
▁tama 1
▁Fle 1
▁instead 1
▁sequ 1
▁documents 1
▁plane 1
▁menu 1
▁Rub 1
rict 1
▁Dez 1
▁Serie 1
▁ejecu 1
▁countries 1
iza 1
▁carne 1
▁padres 1
▁01 1
▁pone 1
▁political 1
▁bevor 1
▁décor 1
▁Tages 1
▁commerci 1
▁Lad 1
▁equili 1
aj 1
ache 1
▁participar 1
▁Tier 1
▁collo 1
▁ofrecer 1
▁weekend 1
AV 1
itze 1
▁metros 1
▁lig 1
▁entste 1
▁genti 1
▁Jetzt 1
park 1
▁Lux 1
▁Ot 1
chang 1
▁hacerlo 1
isco 1
anzia 1
▁quiero 1
▁gegeben 1
like 1
▁Any 1
▁concernant 1
▁vivere 1
▁Datenschutz 1
▁beispiel 1
▁sb 1
aboración 1
▁involved 1
▁arbeiten 1
erge 1
▁passage 1
▁estate 1
▁deshalb 1
▁móvil 1
▁éner 1
:5 1
lös 1
èves 1
▁rester 1
▁god 1
▁consig 1
öst 1
▁correct 1
▁gefunden 1
▁inn 1
▁vole 1
Er 1
nach 1
mat 1
fläche 1
▁ine 1
▁Kin 1
▁sav 1
itness 1
untain 1
▁retra 1
enty 1
osen 1
LO 1
▁scène 1
▁clase 1
▁drink 1
▁Unterstüt 1
icina 1
teile 1
▁vide 1
▁libri 1
colare 1
▁encontra 1
▁opere 1
ubles 1
▁Zw 1
▁colleg 1
▁cambios 1
▁goes 1
▁heißt 1
▁imper 1
▁materials 1
▁Napoli 1
▁playing 1
▁piccoli 1
▁juegos 1
▁civile 1
▁Mach 1
▁logic 1
▁attemp 1
▁partes 1
bieter 1
wasser 1
▁sapere 1
▁Liter 1
kur 1
▁goal 1
tise 1
▁razón 1
olarmente 1
▁Wien 1
▁RE 1
▁texte 1
inture 1
▁cocina 1
▁warm 1
▁conocimiento 1
68 1
▁trasfer 1
▁Nutzung 1
üsse 1
ört 1
▁Mutter 1
▁secteur 1
gati 1
▁Stef 1
▁decided 1
▁jedes 1
ériel 1
▁tick 1
amour 1
rizzo 1
▁born 1
▁abril 1
▁assess 1
▁impi 1
person 1
étais 1
▁méde 1
▁door 1
▁regal 1
▁Ecco 1
▁parle 1
amore 1
CD 1
▁avrebbe 1
vez 1
▁Lar 1
▁vivir 1
öhn 1
▁simil 1
▁SS 1
gebung 1
gique 1
▁miembros 1
▁pint 1
pal 1
▁Vergleich 1
▁daily 1
It 1
▁Tagen 1
▁definite 1
▁Glob 1
▁Politik 1
▁Rei 1
▁exhib 1
▁líder 1
▁siguientes 1
▁compless 1
▁terrain 1
▁tante 1
haps 1
44 1
pack 1
▁Commission 1
▁premio 1
ießen 1
ientes 1
liers 1
▁sabe 1
▁hohe 1
▁musste 1
▁cast 1
▁accept 1
mens 1
▁Are 1
adoras 1
▁conce 1
etten 1
▁présence 1
wär 1
▁girls 1
▁improve 1
▁venti 1
▁shop 1
▁pilo 1
cone 1
▁atti 1
▁copy 1
▁porter 1
▁Wall 1
▁caratteristiche 1
fiques 1
▁peau 1
aggia 1
▁gig 1
▁Pierre 1
MI 1
▁besoins 1
▁Termin 1
▁propone 1
▁dispositivo 1
▁baby 1
itaires 1
érêt 1
▁cél 1
▁Fun 1
▁movie 1
▁release 1
▁aider 1
field 1
▁Fac 1
▁départ 1
▁sched 1
▁mencion 1
▁única 1
▁véhic 1
▁differen 1
▁Main 1
▁Sicherheit 1
▁retrouver 1
▁solche 1
▁empez 1
ielle 1
▁completely 1
wal 1
▁purchase 1
utting 1
erie 1
forderungen 1
▁od 1
▁hyd 1
▁pareja 1
▁musical 1
walt 1
ibilité 1
▁assur 1
alli 1
▁alten 1
UC 1
eración 1
▁occasione 1
çois 1
▁neut 1
▁gives 1
isses 1
▁quanti 1
▁dunque 1
▁became 1
▁College 1
▁rouge 1
▁cere 1
▁Office 1
▁diritti 1
▁disponibili 1
▁Elekt 1
▁véritable 1
▁Temp 1
▁career 1
▁Mons 1
▁importa 1
▁players 1
▁réuss 1
führer 1
▁profit 1
▁scopri 1
▁personen 1
▁Hola 1
rus 1
▁educ 1
▁Todo 1
isson 1
▁Long 1
▁Salv 1
envir 1
▁wrong 1
paign 1
▁published 1
▁dég 1
▁Municip 1
▁Cel 1
fris 1
inese 1
uncil 1
cino 1
fahrt 1
page 1
▁Parti 1
asa 1
▁dub 1
▁gets 1
▁Krie 1
▁exc 1
éct 1
▁efecto 1
▁macch 1
▁Good 1
▁commune 1
▁groups 1
▁LE 1
▁Spaß 1
furt 1
▁celles 1
Ge 1
verständ 1
▁Gebur 1
▁equipment 1
iché 1
▁Erk 1
▁chia 1
▁storico 1
▁capitale 1
▁!!! 1
usias 1
▁freuen 1
▁Fig 1
zuela 1
▁corazón 1
ühren 1
ließen 1
adi 1
Co 1
▁miei 1
▁jorn 1
▁Jun 1
▁professionnels 1
▁sexo 1
▁demost 1
▁régu 1
▁estudios 1
edores 1
▁42 1
▁fris 1
▁regionale 1
▁comunica 1
articolo 1
äss 1
▁stret 1
▁répondre 1
erver 1
istico 1
▁sn 1
▁durant 1
▁transpor 1
▁Österreich 1
▁configur 1
key 1
▁Weihn 1
▁fatti 1
▁tendrá 1
▁Rese 1
▁stup 1
▁Dach 1
▁ignor 1
quée 1
▁común 1
fía 1
▁tats 1
quis 1
tiges 1
▁pote 1
▁Hamburg 1
uiti 1
▁Tel 1
▁stuff 1
cape 1
▁accur 1
zado 1
▁rejo 1
asons 1
▁escort 1
▁server 1
▁Corte 1
▁Fä 1
▁huge 1
2018 1
67 1
lied 1
tezza 1
fond 1
▁repa 1
contro 1
rine 1
mehr 1
lament 1
▁chim 1
▁Ep 1
▁electric 1
▁Scar 1
▁spre 1
Ass 1
▁extend 1
▁pourtant 1
▁Chile 1
auty 1
▁Leute 1
kreis 1
▁Hause 1
▁mother 1
▁wood 1
▁SC 1
▁scene 1
itude 1
▁catég 1
▁imprese 1
▁conosci 1
ji 1
tellungen 1
▁enci 1
▁safety 1
▁lou 1
idores 1
▁Cristo 1
Ab 1
Fi 1
▁ace 1
▁obtain 1
krä 1
ottes 1
▁Even 1
▁sell 1
▁terreno 1
▁effort 1
appe 1
fes 1
▁exac 1
ösen 1
wise 1
▁tenga 1
▁lorsqu 1
▁crecimiento 1
▁zweiten 1
▁état 1
▁ministre 1
▁ara 1
▁lesen 1
▁riv 1
▁ministro 1
▁Digital 1
autor 1
ormais 1
▁Dim 1
9) 1
▁augment 1
▁minor 1
▁Ora 1
▁besonder 1
MP 1
▁average 1
urniture 1
▁menor 1
▁kur 1
▁listen 1
▁PER 1
▁Hil 1
ACI 1
▁incontro 1
naire 1
▁thinking 1
utung 1
▁manque 1
▁frecu 1
gründ 1
▁blood 1
▁sostitu 1
▁libertad 1
▁possiamo 1
äum 1
▁lamp 1
▁spot 1
▁profond 1
▁Mario 1
▁ritro 1
▁tools 1
inizio 1
▁appr 1
▁Prima 1
porto 1
▁prak 1
▁testo 1
▁800 1
▁Music 1
▁Ainsi 1
▁giudi 1
▁diver 1
▁scoper 1
▁gratuito 1
▁costi 1
irurg 1
▁mez 1
▁prec 1
gene 1
▁Feuer 1
riere 1
schließlich 1
▁février 1
▁fatt 1
used 1
▁dürfen 1
▁repe 1
altet 1
▁affid 1
▁soleil 1
▁drama 1
quin 1
▁combat 1
cente 1
▁minimum 1
klärung 1
▁cielo 1
▁Standard 1
▁Erfolg 1
▁PAR 1
partamento 1
▁oppos 1
schafts 1
Lo 1
▁fresh 1
▁Wil 1
▁rie 1
ctivos 1
itre 1
▁ganzen 1
▁pública 1
tador 1
estos 1
▁vostra 1
▁ähn 1
TC 1
bell 1
andro 1
▁Sco 1
▁isol 1
IX 1
▁Ker 1
▁décid 1
▁aco 1
▁Many 1
], 1
▁vou 1
▁pièces 1
▁Color 1
&# 1
▁began 1
former 1
▁Voll 1
partner 1
▁souh 1
▁Después 1
▁10, 1
ennent 1
▁eye 1
rire 1
▁platform 1
▁sand 1
▁risposta 1
▁Jer 1
▁Zent 1
▁limite 1
▁vors 1
▁vergangen 1
dete 1
UB 1
▁gauche 1
bezog 1
▁pago 1
▁manifest 1
▁erreichen 1
▁cambiar 1
▁bos 1
fter 1
▁réponse 1
▁Mensch 1
iedere 1
▁Set 1
▁asc 1
▁giving 1
▁América 1
bewer 1
▁olvid 1
▁sources 1
▁effectiv 1
ierta 1
▁dib 1
▁Look 1
▁responsabilidad 1
▁eyes 1
▁costa 1
▁materiale 1
▁heav 1
▁Life 1
ctifs 1
'. 1
▁bereit 1
▁Gäste 1
ICA 1
ácter 1
▁Kri 1
▁Seg 1
▁interessante 1
azu 1
▁8, 1
▁café 1
▁acquista 1
▁resources 1
▁patient 1
▁éle 1
▁Obje 1
▁stampa 1
phones 1
▁prueba 1
▁sicuramente 1
▁CN 1
ómo 1
▁misura 1
▁avven 1
▁seis 1
▁earn 1
▁Hard 1
▁choisir 1
▁Code 1
▁ovvero 1
▁präsenti 1
▁davanti 1
hard 1
▁Inn 1
▁alternative 1
ched 1
▁cinque 1
▁Verkehr 1
▁enfrent 1
▁defe 1
▁salari 1
▁appré 1
▁felt 1
▁00 1
▁Rot 1
▁Fried 1
▁finde 1
pto 1
▁Sé 1
jeros 1
▁problèmes 1
▁mid 1
▁protección 1
▁finanz 1
▁Wahr 1
▁Kraft 1
▁agg 1
▁upd 1
85 1
▁2016. 1
▁Außerdem 1
▁beach 1
▁niente 1
▁mu 1
oda 1
▁fle 1
▁Ums 1
▁lequel 1
ccan 1
▁error 1
▁Unser 1
▁mechan 1
▁territo 1
ificación 1
▁Francesco 1
▁elementi 1
▁soldi 1
▁befindet 1
▁2003 1
igner 1
▁Gracias 1
▁core 1
▁impression 1
ZIONE 1
ength 1
▁regol 1
▁Colombia 1
▁perfetta 1
▁ciento 1
▁extens 1
▁fils 1
▁mex 1
teilt 1
ünstler 1
liegen 1
chinen 1
▁unit 1
êts 1
anner 1
▁piccola 1
yond 1
▁Prü 1
laus 1
▁tess 1
▁malatti 1
ámara 1
▁aiuta 1
Ich 1
▁Law 1
▁consist 1
ouvel 1
▁costs 1
▁dipend 1
▁absolute 1
roma 1
▁mayores 1
mare 1
sur 1
▁CR 1
lymp 1
▁request 1
édi 1
▁anzi 1
ancio 1
ändig 1
▁importancia 1
ftung 1
▁arriva 1
üssel 1
▁changer 1
▁plupart 1
▁Wald 1
iven 1
▁negocio 1
▁Schm 1
▁DVD 1
▁Größe 1
▁amore 1
▁Salud 1
▁hochwer 1
▁interested 1
▁Word 1
▁basta 1
blich 1
▁attenzione 1
▁Vorte 1
▁planning 1
▁TR 1
▁round 1
▁poste 1
▁facilement 1
▁pensar 1
▁identit 1
▁hop 1
▁susp 1
▁Ministerio 1
uestos 1
▁diferencia 1
▁nessuno 1
zeiten 1
öffentlicht 1
▁piedi 1
▁Marie 1
▁jemand 1
▁proprietà 1
▁Party 1
DR 1
▁Mädchen 1
▁sortie 1
▁améli 1
▁Beim 1
ikan 1
▁contiene 1
vieron 1
▁Australia 1
far 1
▁séjour 1
▁Ret 1
▁viernes 1
zquier 1
▁mittel 1
▁Sesso 1
▁lugares 1
▁ride 1
tada 1
hner 1
▁oficial 1
▁notwend 1
▁économique 1
▁ailleurs 1
▁vede 1
▁Var 1
alized 1
oint 1
▁singles 1
▁diventa 1
▁brut 1
▁Bitte 1
icare 1
▁Great 1
tu 1
▁Mü 1
▁inspi 1
▁scegliere 1
▁trabajadores 1
ST 1
▁aufgrund 1
fäl 1
▁proprie 1
▁efectos 1
▁wasn 1
istic 1
ído 1
èles 1
▁digitale 1
▁forces 1
fluss 1
▁potrà 1
▁fully 1
▁gain 1
▁progetti 1
▁unver 1
spe 1
remos 1
▁gamme 1
▁insbesondere 1
▁posted 1
▁formas 1
▁Conseil 1
▁register 1
icion 1
▁figli 1
▁ves 1
ctives 1
imen 1
▁sov 1
wind 1
▁giard 1
▁1: 1
▁developed 1
▁ascol 1
▁ebenso 1
igenze 1
▁souhait 1
▁reve 1
▁devenir 1
▁sometimes 1
ktiv 1
mag 1
rone 1
▁Rolle 1
▁beispielsweise 1
▁entsp 1
▁February 1
wirtschaft 1
▁perder 1
▁estudiantes 1
èse 1
▁lecture 1
▁suivre 1
▁lont 1
▁unbe 1
nor 1
▁dirige 1
▁Komment 1
étés 1
▁college 1
▁Vit 1
▁progres 1
▁Schlaf 1
---- 1
▁cine 1
ließlich 1
▁efforts 1
asen 1
-10 1
duzione 1
▁Union 1
▁Gol 1
▁salon 1
▁strength 1
▁Gest 1
argent 1
▁Damen 1
auto 1
▁bless 1
▁taux 1
▁compens 1
▁block 1
▁activity 1
▁reten 1
esperienza 1
▁peur 1
▁Fed 1
▁gewesen 1
▁limited 1
▁repos 1
gor 1
▁raz 1
▁realizzazione 1
▁Michel 1
▁Lauf 1
organisation 1
▁qualcuno 1
▁domen 1
▁correo 1
UP 1
▁überhaupt 1
cesso 1
▁gir 1
▁directly 1
bü 1
▁lingu 1
▁contrôle 1
▁hici 1
▁semaines 1
▁Präs 1
unica 1
▁Frei 1
▁2014, 1
▁vorhand 1
▁bom 1
▁rifi 1
iro 1
▁pav 1
▁considered 1
▁gave 1
▁welches 1
ulent 1
▁funzione 1
▁hog 1
fehl 1
▁articolo 1
illon 1
▁George 1
▁Constitu 1
▁Beach 1
rel 1
▁Esp 1
▁punta 1
▁Probleme 1
cat 1
▁abandon 1
▁Prés 1
▁Press 1
▁contenuti 1
▁voce 1
elas 1
▁deja 1
▁ray 1
▁región 1
▁permettre 1
▁sistemas 1
▁instrument 1
gne 1
▁pratica 1
íos 1
▁dando 1
bilidad 1
▁meilleure 1
▁deciso 1
▁sucht 1
▁SE 1
▁print 1
▁stran 1
▁splend 1
▁physical 1
▁réaliser 1
▁logo 1
▁Artic 1
edding 1
▁mett 1
▁dele 1
▁materiali 1
cire 1
▁Manuel 1
▁alrededor 1
▁schreiben 1
ablo 1
▁East 1
▁confiance 1
▁fré 1
igna 1
▁Während 1
such 1
▁indé 1
▁Deutschen 1
▁judi 1
lor 1
▁Fur 1
▁Sind 1
▁config 1
▁accor 1
▁Teilnehmer 1
▁banda 1
▁reduce 1
ffre 1
▁Company 1
▁fight 1
ously 1
▁Eing 1
▁vote 1
image 1
▁colores 1
▁características 1
▁Stati 1
▁suffici 1
▁anges 1
EST 1
▁Pia 1
▁bols 1
▁entfern 1
▁apoy 1
▁dark 1
▁prezzi 1
▁farma 1
▁Such 1
▁curios 1
aim 1
▁Blo 1
46 1
▁réalité 1
▁Volks 1
prochen 1
gegen 1
▁behav 1
▁acerca 1
▁effects 1
pflich 1
▁soient 1
Je 1
▁trim 1
▁meist 1
▁hos 1
▁visual 1
▁avanti 1
▁erfolgreich 1
▁stanno 1
▁análisis 1
▁droite 1
▁esigenze 1
▁narra 1
▁stories 1
vazione 1
▁expect 1
▁provoc 1
mbol 1
▁grav 1
▁Department 1
▁dialog 1
▁Schule 1
____ 1
▁race 1
▁filles 1
▁tac 1
▁Erfahrung 1
▁decisión 1
▁superiore 1
▁élev 1
▁edizione 1
▁Videos 1
▁cart 1
▁cient 1
bran 1
▁Santi 1
itzer 1
amples 1
alidad 1
riz 1
▁défini 1
ambiente 1
▁Sun 1
▁movimiento 1
▁honor 1
▁Giovanni 1
comes 1
▁marche 1
veux 1
▁setzen 1
▁poly 1
▁Früh 1
▁autonom 1
▁destino 1
VA 1
▁éléments 1
▁trouvé 1
▁MP 1
▁cry 1
▁tort 1
▁edit 1
▁Unternehmens 1
assion 1
▁anderem 1
▁sáb 1
▁tue 1
▁enorme 1
emi 1
▁domes 1
▁posti 1
volta 1
lamento 1
wegs 1
▁Va 1
úa 1
digo 1
▁tav 1
▁carácter 1
ím 1
▁romp 1
▁Torino 1
elte 1
▁pér 1
▁balance 1
▁ciclo 1
▁rim 1
wertung 1
innt 1
ätzen 1
▁towards 1
▁Archite 1
▁época 1
▁mine 1
▁inscri 1
▁benefits 1
▁Öff 1
bereit 1
olina 1
▁poll 1
▁Jahrhunder 1
▁Research 1
angs 1
▁baja 1
▁lengua 1
gency 1
96 1
▁humanos 1
quez 1
▁erfolgt 1
▁Instagram 1
▁ehe 1
▁moments 1
▁Sl 1
▁excep 1
▁afecta 1
straße 1
▁département 1
▁avoid 1
vate 1
▁título 1
▁meilleurs 1
▁Era 1
▁inmedi 1
▁Sche 1
ieb 1
▁poursu 1
▁Asia 1
agers 1
▁Vere 1
▁ayudar 1
uit 1
▁converti 1
merce 1
glise 1
tiers 1
▁aktuellen 1
▁quelqu 1
▁manager 1
▁habían 1
▁Eli 1
▁Ou 1
ombi 1
▁pelig 1
▁Bahn 1
▁intra 1
▁quiz 1
äude 1
zip 1
▁commence 1
▁traditional 1
▁gold 1
▁sports 1
▁pièce 1
▁tool 1
▁Zus 1
▁wind 1
gement 1
▁Friday 1
ücken 1
itari 1
▁firma 1
▁consente 1
▁himself 1
▁conseil 1
▁convertir 1
▁predic 1
▁Enfin 1
ksam 1
▁diman 1
▁naturaleza 1
▁opciones 1
▁peine 1
▁pattern 1
▁campagne 1
mode 1
▁pau 1
nelles 1
▁desap 1
▁Tous 1
▁FC 1
▁Since 1
▁Blue 1
îne 1
▁momentos 1
▁organization 1
47 1
▁cooper 1
▁pequeña 1
▁termini 1
▁annon 1
▁neigh 1
▁encuentran 1
hé 1
abhäng 1
▁crisi 1
▁glass 1
▁criter 1
▁niño 1
▁Wild 1
▁prossimo 1
▁declar 1
▁jeweils 1
▁erne 1
▁permitir 1
iao 1
▁premiers 1
▁Dazu 1
intérieur 1
itag 1
alto 1
▁execu 1
▁mains 1
▁sonst 1
▁brit 1
▁Aller 1
▁demasiado 1
▁août 1
▁expérience 1
dre 1
▁conoscenza 1
▁12. 1
agno 1
▁response 1
▁idee 1
▁Gruppe 1
▁équ 1
▁facendo 1
associ 1
▁Cra 1
▁Wett 1
▁Access 1
oe 1
ammlung 1
▁Kurz 1
ólares 1
▁luoghi 1
▁belieb 1
▁Auftrag 1
▁professione 1
▁geworden 1
▁mitt 1
▁normale 1
▁Mitglied 1
▁necesita 1
▁diss 1
resa 1
wide 1
▁fash 1
zep 1
▁Regione 1
sein 1
▁conviv 1
▁saying 1
xi 1
möglichkeit 1
rup 1
▁recogn 1
isée 1
▁Pok 1
taire 1
▁allá 1
▁cuad 1
▁Mary 1
upp 1
On 1
▁Mitglieder 1
barkeit 1
▁proxim 1
▁Sund 1
einander 1
▁norte 1
▁European 1
ruktur 1
OG 1
▁fou 1
▁febrero 1
▁Paolo 1
▁capable 1
▁Rel 1
▁vorher 1
▁Staats 1
▁heard 1
fy 1
▁matrimonio 1
ktionen 1
▁Verarbeitung 1
ulación 1
▁fiss 1
▁tagli 1
uil 1
adém 1
▁Verantwort 1
▁acep 1
ization 1
▁studenti 1
▁Spiele 1
funk 1
▁regional 1
uropa 1
▁portare 1
▁ok 1
▁corte 1
’. 1
▁Cri 1
▁abord 1
▁entrega 1
▁Dok 1
▁relaciones 1
▁Kolle 1
▁Love 1
fli 1
▁Januar 1
▁thre 1
▁danger 1
Unis 1
QU 1
chant 1
▁Studio 1
▁malgré 1
▁Dere 1
▁erhö 1
▁klein 1
▁Tecn 1
zeigt 1
éten 1
▁Todos 1
▁entwickelt 1
▁MA 1
ologica 1
dorf 1
▁ristor 1
▁Titel 1
minación 1
▁tamaño 1
▁Richtung 1
steme 1
▁sortir 1
sto 1
▁Ill 1
▁pictures 1
▁dólares 1
tiert 1
▁Möglichkeiten 1
▁panne 1
▁ultra 1
▁entrar 1
▁oro 1
97 1
Pl 1
▁necessità 1
▁Gespr 1
napp 1
▁Cookies 1
▁Baum 1
▁médi 1
▁häufig 1
▁understanding 1
▁coeur 1
▁Kan 1
▁einigen 1
achts 1
▁filoso 1
▁internationale 1
▁slow 1
▁dead 1
▁ó 1
▁passo 1
▁Dezember 1
▁acces 1
▁bringt 1
telli 1
▁dettagli 1
▁Oui 1
▁mouvement 1
▁BM 1
▁faites 1
osas 1
▁Samsung 1
▁sust 1
▁haute 1
▁fand 1
▁individuals 1
▁esegu 1
▁feeling 1
ghter 1
▁wonderful 1
▁procéd 1
rut 1
teriore 1
▁témo 1
▁Joh 1
▁guitar 1
▁deutsche 1
schlag 1
▁carry 1
▁Süd 1
▁víde 1
▁Innen 1
ustand 1
▁Oggi 1
▁presup 1
▁bac 1
▁désormais 1
idée 1
▁pagamento 1
▁pouvait 1
▁spazi 1
▁verrà 1
▁vag 1
▁déro 1
ufe 1
chnung 1
▁08 1
▁Louis 1
AND 1
▁Shop 1
▁hour 1
▁máximo 1
ängen 1
▁Bit 1
medio 1
▁frame 1
hop 1
kraft 1
ettare 1
fle 1
▁cass 1
▁Glas 1
▁Alterna 1
▁compartir 1
▁idées 1
▁solamente 1
ífico 1
vanced 1
▁somos 1
▁Wort 1
▁Chic 1
▁11. 1
▁Bach 1
▁Gleich 1
▁Jesús 1
gruppe 1
▁raggiungere 1
▁connect 1
ision 1
ändert 1
ffee 1
▁Gott 1
école 1
▁somme 1
mma 1
▁Once 1
laz 1
▁lev 1
▁mobili 1
▁Ideen 1
▁Kranken 1
ulen 1
▁succès 1
unti 1
▁bénéfici 1
▁recip 1
volle 1
▁espera 1
▁studies 1
▁Mand 1
▁storage 1
▁successful 1
▁piacere 1
rían 1
▁constante 1
dena 1
▁würden 1
▁comfort 1
tager 1
▁materiales 1
fru 1
ossa 1
▁tampoco 1
▁elettron 1
▁2002 1
▁puisque 1
EF 1
▁Pros 1
▁lots 1
ambres 1
▁edition 1
▁betre 1
▁Beau 1
▁Erst 1
▁triste 1
Ho 1
ería 1
down 1
▁adapt 1
ossier 1
▁46 1
▁2012, 1
bis 1
Wir 1
▁commande 1
quina 1
▁reale 1
culos 1
▁länger 1
▁aleg 1
▁sistemi 1
▁Viele 1
preis 1
▁shopping 1
ombre 1
▁purpose 1
▁Voici 1
▁Farbe 1
▁launch 1
▁uses 1
▁difficoltà 1
▁evitare 1
▁campaña 1
moire 1
▁ille 1
▁justice 1
ignes 1
word 1
▁previous 1
▁campaign 1
▁states 1
▁exterior 1
▁Maur 1
▁PM 1
umps 1
▁comunità 1
▁ferro 1
▁legno 1
▁mundial 1
uttosto 1
▁giusto 1
érature 1
▁Bos 1
▁perdere 1
▁rico 1
▁dip 1
▁basso 1
como 1
press 1
▁definitely 1
▁distintos 1
▁potere 1
▁rand 1
▁insegn 1
▁Span 1
eds 1
▁9, 1
▁fashion 1
▁salv 1
▁Island 1
▁trovato 1
▁Obama 1
▁2013, 1
▁giochi 1
▁conduc 1
igu 1
▁birth 1
▁helps 1
▁Govern 1
▁owners 1
▁seleccion 1
▁stell 1
▁solidar 1
iefer 1
▁Internacional 1
mbi 1
▁mostrar 1
▁associated 1
▁prices 1
▁antigu 1
▁moyens 1
▁Ambi 1
▁idée 1
▁teatro 1
▁territori 1
▁pequeños 1
▁proteg 1
eria 1
▁realis 1
sam 1
▁texto 1
▁inglés 1
▁League 1
▁commission 1
▁mera 1
aupts 1
▁precedente 1
▁pén 1
▁MS 1
▁wife 1
▁Kal 1
▁soltanto 1
▁durée 1
idera 1
▁soft 1
zeugen 1
▁Porn 1
▁Paese 1
▁retrouve 1
▁Fire 1
▁hund 1
irit 1
▁Gemeinde 1
▁(0 1
▁decreto 1
hung 1
▁disposition 1
▁origen 1
uchte 1
antis 1
▁mere 1
ungsver 1
contri 1
idor 1
▁Nähe 1
▁questione 1
▁pac 1
▁autoridades 1
bata 1
▁tellement 1
▁llega 1
▁práctica 1
▁ga 1
jero 1
andosi 1
▁alber 1
ayer 1
▁selezion 1
▁domingo 1
▁sezione 1
▁Hans 1
▁Africa 1
outube 1
▁correspondi 1
▁bedeutet 1
▁Wik 1
▁verz 1
ignement 1
▁Last 1
▁bici 1
gri 1
tados 1
gente 1
▁amm 1
▁Leon 1
cés 1
▁Mes 1
▁infin 1
allas 1
▁creación 1
▁elekt 1
▁Kno 1
▁pensare 1
ütz 1
pot 1
▁notes 1
▁presid 1
▁chale 1
▁programas 1
parte 1
▁dimanche 1
mano 1
▁Kil 1
▁Idee 1
▁player 1
▁shown 1
▁starting 1
▁cinq 1
yers 1
▁corr 1
áfico 1
eté 1
▁spieg 1
▁stabili 1
endem 1
mack 1
▁aktiv 1
▁released 1
▁entde 1
▁supuesto 1
▁tried 1
▁Bran 1
▁Nieder 1
▁velo 1
▁incar 1
utilizzo 1
▁Köl 1
▁contar 1
▁Saison 1
▁bambino 1
igte 1
▁Oder 1
▁verano 1
▁compe 1
▁imped 1
▁Farben 1
▁zonas 1
▁hue 1
▁exactly 1
▁PP 1
▁prochain 1
▁warum 1
▁tecniche 1
▁grosse 1
Tube 1
dor 1
remo 1
▁scopo 1
▁vehicle 1
ppure 1
▁comida 1
▁nour 1
gano 1
▁Flü 1
▁contract 1
▁(6 1
▁Costa 1
▁mariage 1
▁possibilité 1
▁Ferien 1
bot 1
▁rist 1
▁rencontrer 1
▁teléfono 1
essore 1
ensión 1
erung 1
▁Church 1
iere 1
▁industrial 1
▁connaiss 1
▁temperature 1
▁camere 1
▁Blu 1
▁gesehen 1
▁Labor 1
▁Association 1
gener 1
fähr 1
▁encanta 1
▁marco 1
▁humano 1
▁militar 1
▁domenica 1
/10 1
▁64 1
▁faud 1
▁2001 1
▁target 1
▁fat 1
idung 1
inati 1
ciamo 1
▁soggiorno 1
55 1
itati 1
▁ragione 1
umm 1
▁Rein 1
liquer 1
▁thous 1
how 1
▁risorse 1
▁privile 1
haltung 1
▁anticip 1
▁semanas 1
teilen 1
▁requirements 1
▁bain 1
▁leben 1
▁chil 1
▁fals 1
▁izquier 1
▁dernières 1
▁revel 1
▁klass 1
▁Sara 1
▁figlio 1
▁Rou 1
▁derniers 1
▁Wirtschafts 1
▁expected 1
▁Whe 1
▁incluye 1
▁occur 1
úsqu 1
tia 1
brio 1
▁peric 1
▁ayer 1
▁CS 1
kungen 1
▁zunächst 1
▁energe 1
▁salida 1
▁obst 1
▁devient 1
schuhe 1
▁vantag 1
▁schöne 1
▁fundamental 1
▁directamente 1
▁Andrea 1
▁Thank 1
▁publié 1
▁Confer 1
▁lumière 1
▁Mini 1
urb 1
▁Academ 1
▁fondamentale 1
▁enem 1
tiles 1
▁secolo 1
▁proche 1
▁selber 1
▁dieta 1
▁braucht 1
▁Berl 1
▁pregunta 1
▁minute 1
angel 1
riften 1
▁reported 1
▁truc 1
▁vot 1
alizada 1
chmal 1
inale 1
▁capelli 1
▁rat 1
ittura 1
▁riten 1
▁socio 1
▁bisogna 1
▁Museo 1
▁recono 1
▁ámb 1
▁confort 1
▁principalmente 1
tains 1
▁06 1
▁virus 1
▁demander 1
▁Telefon 1
ango 1
▁boy 1
▁remplac 1
▁partecipazione 1
▁growing 1
▁numéro 1
▁OR 1
appar 1
isser 1
▁franch 1
▁véri 1
▁Amb 1
▁ami 1
▁blue 1
▁knew 1
▁brought 1
mpos 1
▁Charles 1
lassen 1
▁procesos 1
▁Girl 1
▁dichiara 1
▁comporte 1
▁metà 1
onnen 1
▁Cet 1
▁Wohnung 1
▁Sans 1
▁element 1
▁Anim 1
▁categoria 1
▁recur 1
▁apparten 1
▁suit 1
ieden 1
▁philosoph 1
indruck 1
▁Gia 1
▁Straße 1
▁ejercicio 1
▁bem 1
ditions 1
accord 1
▁prevede 1
▁rendez 1
look 1
Tra 1
weile 1
▁velocidad 1
▁adqui 1
entliche 1
▁Sonntag 1
tende 1
▁bianco 1
▁interc 1
geschlossen 1
gole 1
▁informe 1
▁rée 1
estion 1
fasst 1
ologna 1
vrez 1
▁allein 1
▁creating 1
▁professionale 1
▁AT 1
▁piscina 1
▁British 1
▁permanente 1
▁Gala 1
▁Disk 1
▁eléct 1
▁arre 1
▁gehören 1
tieren 1
ktions 1
▁mindestens 1
▁soggetti 1
▁montre 1
▁Brand 1
▁hohen 1
▁rendere 1
érations 1
▁famiglie 1
▁dedicato 1
▁Ban 1
▁Nr 1
▁contratto 1
▁geeignet 1
▁Bett 1
▁Unterstützung 1
▁dessus 1
▁pet 1
▁joueurs 1
▁matériel 1
▁moyenne 1
▁difference 1
▁brind 1
▁fav 1
▁podía 1
erais 1
▁coche 1
▁giur 1
cée 1
mitteln 1
▁pantalla 1
▁Secondo 1
▁convoc 1
annes 1
▁verwenden 1
▁Educación 1
antil 1
▁cade 1
cana 1
▁Essen 1
▁vital 1
-7 1
ricos 1
quite 1
▁denomin 1
tissimo 1
▁respond 1
▁fos 1
▁corret 1
sociazione 1
eden 1
▁Computer 1
▁session 1
▁finally 1
▁alumnos 1
▁professionnel 1
▁contest 1
áticos 1
irma 1
▁47 1
▁cloth 1
▁llamado 1
▁Box 1
henden 1
▁negro 1
▁chron 1
neas 1
▁posición 1
ESS 1
▁encima 1
▁usa 1
▁innov 1
▁Herren 1
▁répar 1
▁quieres 1
orauss 1
▁conseils 1
kennen 1
▁faisant 1
cidas 1
▁played 1
▁classes 1
▁ate 1
▁rose 1
▁dry 1
▁Interesse 1
▁Texas 1
▁ragazza 1
rées 1
.» 1
▁credo 1
nete 1
▁pred 1
▁puls 1
▁Tou 1
rations 1
▁finish 1
▁federal 1
▁sociaux 1
▁song 1
erape 1
▁paid 1
▁sat 1
ambito 1
ziehung 1
▁maybe 1
▁ieri 1
▁gratuita 1
▁justif 1
Europe 1
esis 1
gesetzt 1
▁bald 1
guridad 1
todo 1
ALE 1
▁turned 1
arth 1
▁crit 1
▁straordin 1
▁estaban 1
▁replac 1
itié 1
▁obs 1
urent 1
▁colp 1
▁Strom 1
▁experts 1
akter 1
llten 1
▁Heute 1
▁Pur 1
▁acus 1
▁Versch 1
▁poids 1
▁poche 1
▁gia 1
▁furniture 1
▁offici 1
▁nero 1
▁Entwick 1
ürf 1
▁declara 1
xx 1
▁pressure 1
irse 1
▁genug 1
▁samedi 1
best 1
letzt 1
▁politiques 1
star 1
▁fatta 1
▁oe 1
▁insgesamt 1
▁minister 1
▁arro 1
▁trabajos 1
▁interventi 1
▁cash 1
bringen 1
▁2015. 1
qués 1
▁wild 1
▁téléphone 1
endra 1
meldung 1
▁tecnica 1
▁trade 1
▁soirée 1
▁catal 1
▁toile 1
▁Förder 1
hens 1
idamente 1
esprit 1
▁certainly 1
itoy 1
▁piuttosto 1
atre 1
▁sábado 1
äischen 1
▁composto 1
▁Manager 1
▁surprise 1
pher 1
▁neg 1
▁offerte 1
▁20. 1
BI 1
isant 1
▁Hon 1
nant 1
▁obtenir 1
▁europea 1
▁join 1
▁palabra 1
▁Venezuela 1
▁dign 1
coni 1
kin 1
▁Samstag 1
Das 1
▁segre 1
▁economic 1
▁posso 1
▁arriv 1
fangen 1
▁llegó 1
▁pubblici 1
▁Chiesa 1
anter 1
▁basic 1
▁villa 1
▁permettant 1
zialis 1
▁Tot 1
▁Wid 1
▁extern 1
▁seguire 1
long 1
▁sorprend 1
▁tali 1
▁netto 1
▁Tutti 1
▁Consejo 1
▁Alter 1
▁gesetz 1
▁arrivare 1
posizione 1
▁contatto 1
cine 1
▁mille 1
▁Dic 1
aste 1
▁Lö 1
▁Maison 1
▁commerciale 1
geln 1
▁assum 1
onie 1
▁iba 1
▁measure 1
▁hus 1
▁pertene 1
▁corri 1
▁consac 1
▁title 1
▁marcha 1
▁partidos 1
▁reto 1
▁Pflege 1
▁blanco 1
▁résultat 1
▁langue 1
ordre 1
utzen 1
▁Betrieb 1
ämlich 1
▁entsch 1
▁lingua 1
▁continuación 1
▁supply 1
▁utilisé 1
coin 1
▁vö 1
troppo 1
▁Inhalte 1
▁vanno 1
Si 1
▁2.0 1
▁Modell 1
▁rinno 1
drück 1
▁solución 1
ifi 1
▁aime 1
▁Fal 1
▁élèves 1
tient 1
▁Mitt 1
paper 1
▁Pfl 1
diamo 1
oglio 1
▁Vier 1
untamiento 1
▁technologies 1
▁sociali 1
▁coloro 1
▁Museum 1
▁distintas 1
út 1
▁Aless 1
fehlen 1
▁processus 1
▁ern 1
▁Cuba 1
▁détermin 1
▁rimas 1
▁políticas 1
▁dollars 1
▁Democ 1
▁contemporane 1
▁industria 1
▁amministra 1
▁soluzioni 1
▁jugar 1
▁interesse 1
uncio 1
▁comma 1
▁inclus 1
VO 1
▁UR 1
annel 1
▁vs 1
▁caractér 1
▁erfahren 1
cili 1
▁Sicherheits 1
ience 1
itur 1
▁verre 1
▁moving 1
▁mic 1
issez 1
▁43 1
▁magari 1
zeuge 1
mlich 1
mettre 1
▁Europea 1
▁Enter 1
▁valores 1
ctar 1
▁Nuo 1
▁terzo 1
▁podrán 1
▁profiter 1
oco 1
▁décision 1
▁Each 1
▁soum 1
▁voz 1
▁(3) 1
▁urban 1
erin 1
kal 1
▁Richard 1
▁French 1
wig 1
▁galler 1
ägt 1
▁pase 1
mbo 1
▁campe 1
▁Investi 1
▁escen 1
▁invi 1
▁Profession 1
quen 1
FF 1
▁Check 1
▁estima 1
▁lieux 1
itzt 1
▁nahe 1
▁father 1
▁CP 1
▁concerne 1
▁prim 1
▁exig 1
▁Temper 1
uster 1
▁quant 1
▁Heraus 1
▁puli 1
▁Multi 1
▁usare 1
▁niveles 1
▁sleep 1
▁adelante 1
▁veramente 1
üß 1
▁Küche 1
▁Miguel 1
▁England 1
,00 1
▁rechts 1
▁lunes 1
expéri 1
▁loved 1
▁(18 1
▁logiciel 1
▁entfernt 1
▁rag 1
▁browser 1
▁bonus 1
▁beginning 1
▁fede 1
▁früher 1
pell 1
zes 1
▁pé 1
▁interview 1
hy 1
▁travailler 1
liday 1
▁CC 1
útbol 1
▁fiscal 1
▁annonce 1
ätigkeit 1
pert 1
atell 1
▁aspetti 1
▁déplac 1
ii 1
▁bello 1
ometer 1
worten 1
ölker 1
▁Server 1
▁spiega 1
▁truly 1
tismo 1
▁Kindern 1
43 1
▁Cré 1
▁Behandlung 1
wner 1
ichi 1
▁évén 1
▁compagnie 1
▁pourrez 1
LC 1
▁verdi 1
▁quartier 1
brig 1
▁spent 1
ètement 1
▁Nazionale 1
rive 1
▁realizzare 1
ccato 1
▁vitam 1
▁healthy 1
▁football 1
▁Klein 1
▁diario 1
▁grade 1
▁19. 1
ticoli 1
▁genitori 1
ètre 1
▁magas 1
▁víc 1
42 1
▁aprender 1
ultural 1
ronic 1
▁messo 1
▁bee 1
▁acquis 1
▁referencia 1
▁challenge 1
▁endlich 1
▁pren 1
▁lucha 1
▁cheveux 1
kers 1
▁transporte 1
▁fill 1
▁instala 1
ición 1
▁Wein 1
▁elemento 1
▁tiempos 1
▁einzelnen 1
▁cinema 1
▁dura 1
▁discussion 1
▁trasm 1
▁modelli 1
▁legger 1
▁kn 1
▁bâti 1
▁Gesetz 1
▁mensaje 1
▁” 1
osex 1
▁agree 1
▁responsabilità 1
▁Name 1
▁capo 1
▁bedroom 1
▁Deutsche 1
▁risol 1
▁origine 1
▁Baby 1
▁preso 1
▁confronti 1
▁Kateg 1
igar 1
IZ 1
▁banca 1
▁entender 1
▁patrimonio 1
▁búsqu 1
▁Board 1
▁lernen 1
▁connaître 1
ónica 1
▁voglia 1
iny 1
▁doble 1
▁familias 1
▁jugadores 1
kan 1
▁abus 1
clud 1
▁evidence 1
▁arbe 1
▁crist 1
▁nimmt 1
▁elegante 1
▁compéten 1
▁Hall 1
▁Song 1
▁marav 1
▁Comple 1
▁Marc 1
▁tú 1
▁wants 1
▁Verbindung 1
▁cias 1
▁09 1
sie 1
▁15. 1
▁Gonz 1
▁pocos 1
▁veget 1
▁Typ 1
▁centros 1
▁sosp 1
▁strumento 1
onen 1
▁connu 1
▁rivel 1
▁simplemente 1
▁Teatro 1
rina 1
▁lunga 1
▁aide 1
▁Jus 1
▁zudem 1
▁meaning 1
▁heat 1
▁protezione 1
▁vergangenen 1
EU 1
▁panel 1
▁suivi 1
▁supporto 1
fast 1
▁Kommunik 1
▁König 1
▁Instituto 1
ariat 1
ragon 1
▁CA 1
ützen 1
cite 1
▁llama 1
▁expand 1
▁repas 1
amor 1
▁50% 1
▁pubblicato 1
▁Rac 1
▁pace 1
kir 1
▁spann 1
▁Bede 1
▁privacy 1
Mo 1
jado 1
▁Matt 1
▁wunder 1
▁realizzato 1
ichter 1
▁soi 1
▁Pedro 1
▁trovi 1
▁notice 1
leistungen 1
▁detalles 1
▁corris 1
▁Nouve 1
▁personenbezog 1
▁idi 1
▁parad 1
prim 1
▁dadurch 1
fft 1
rati 1
▁enthalten 1
▁Autom 1
▁Pak 1
▁immedi 1
▁corru 1
▁score 1
▁pieno 1
▁tecnico 1
▁conoc 1
▁responsables 1
▁impl 1
▁discri 1
▁générale 1
▁18. 1
▁compara 1
▁visible 1
▁advice 1
?” 1
▁beyond 1
▁consolid 1
▁Cole 1
▁az 1
▁aquel 1
ording 1
▁infra 1
▁clás 1
▁rilev 1
▁surviv 1
▁River 1
▁tau 1
▁surf 1
late 1
▁edificio 1
▁church 1
▁benefit 1
LI 1
entation 1
▁erfü 1
▁soff 1
▁calcio 1
▁methods 1
▁Bell 1
▁dichiar 1
▁económica 1
êche 1
▁surround 1
▁Road 1
▁Lord 1
▁basis 1
▁Sunday 1
▁YouTube 1
▁impossible 1
vors 1
tian 1
▁Mundial 1
▁49 1
▁entorno 1
▁partita 1
blog 1
▁gesagt 1
istiques 1
▁Flo 1
▁établ 1
▁nonostante 1
▁exemp 1
ológico 1
▁artif 1
▁weltweit 1
▁suivant 1
▁People 1
tiver 1
▁provved 1
inted 1
▁bass 1
▁inspir 1
▁Training 1
▁Señ 1
!" 1
▁Full 1
reibung 1
▁Blut 1
▁Hill 1
▁Although 1
▁xx 1
▁diferente 1
dam 1
▁Florida 1
▁penser 1
▁suelo 1
▁unge 1
▁Dos 1
ución 1
▁occupa 1
▁Poi 1
▁réguli 1
▁Vari 1
▁ersche 1
fun 1
▁tv 1
▁rot 1
▁sorgen 1
▁participants 1
▁appreci 1
stelle 1
uestas 1
▁distribution 1
▁Kreis 1
▁begin 1
▁treffen 1
riert 1
▁soul 1
▁paesi 1
▁Wieder 1
umb 1
▁debate 1
▁parola 1
gende 1
▁zehn 1
▁semplicemente 1
▁Lab 1
ístico 1
▁bist 1
▁potenzi 1
▁alone 1
▁Erfahrungen 1
▁pasta 1
▁VI 1
▁middle 1
zwischen 1
▁expecta 1
▁appara 1
▁pelo 1
▁impuls 1
▁Tisch 1
tissement 1
▁seconde 1
▁ant 1
▁Time 1
▁testimoni 1
▁phase 1
▁recru 1
ôme 1
▁Nueva 1
ugi 1
▁Ogni 1
active 1
▁Polizei 1
▁prison 1
isés 1
teriori 1
▁proget 1
▁aur 1
▁scheint 1
▁verm 1
▁presentación 1
▁Saturday 1
▁journ 1
icati 1
chester 1
▁derrière 1
▁economico 1
Ro 1
cific 1
▁Make 1
▁schedule 1
▁tatsächlich 1
zed 1
vements 1
▁Why 1
▁fail 1
▁Votre 1
▁models 1
ICH 1
▁realizado 1
intes 1
lerweile 1
▁baño 1
pm 1
inión 1
▁estra 1
▁feet 1
▁comercial 1
▁carri 1
▁aproxim 1
▁rates 1
gaciones 1
▁Stein 1
▁speciale 1
karte 1
▁connaissance 1
cazione 1
▁award 1
▁compro 1
rö 1
▁Federal 1
▁FR 1
▁electrónico 1
vres 1
▁movimento 1
▁sali 1
▁Christmas 1
▁femmin 1
▁beide 1
%) 1
tables 1
▁advertis 1
Etat 1
wohner 1
▁político 1
cky 1
▁Care 1
▁reflex 1
▁Straßen 1
▁signal 1
▁animali 1
▁conocido 1
▁réserv 1
http 1
▁installation 1
reu 1
▁Mul 1
informa 1
çons 1
▁glo 1
▁tecnologia 1
wegung 1
▁bekommt 1
▁ocasión 1
▁economía 1
▁contenu 1
umenta 1
qual 1
▁protect 1
▁höch 1
▁presse 1
▁comod 1
▁verst 1
▁violence 1
ell 1
LAN 1
▁41 1
▁tru 1
▁looked 1
▁costante 1
▁enregist 1
ügen 1
▁messages 1
▁suc 1
▁differenza 1
▁sinistra 1
▁äl 1
▁consomm 1
▁ko 1
▁nämlich 1
altungen 1
stoff 1
▁academ 1
▁dietro 1
▁stär 1
heur 1
▁Ét 1
▁esser 1
tendo 1
rates 1
uters 1
▁raccolta 1
teriormente 1
▁livres 1
▁Stellen 1
▁asi 1
aisse 1
uga 1
nés 1
▁Single 1
▁publique 1
▁accueill 1
▁garden 1
Man 1
écu 1
▁faisait 1
▁Februar 1
▁hermos 1
▁Ergebnis 1
▁facebook 1
▁Gesamt 1
▁República 1
▁parking 1
▁Kit 1
▁Sky 1
▁meccan 1
▁families 1
▁Stim 1
▁Iden 1
?" 1
▁Dol 1
▁Cada 1
▁sentiment 1
ups 1
inno 1
▁Buenos 1
para 1
oggi 1
▁Firma 1
avant 1
▁Ray 1
gy 1
▁Patienten 1
▁coppia 1
▁Dinge 1
▁quei 1
/2018 1
▁setzt 1
ctoral 1
fam 1
▁degree 1
ulaire 1
▁codice 1
▁Hu 1
activité 1
▁violencia 1
▁disease 1
▁papier 1
▁schools 1
.). 1
▁Basis 1
grad 1
atever 1
▁rispar 1
▁dossier 1
occup 1
▁personales 1
▁Justi 1
hausen 1
▁existi 1
▁cominci 1
viene 1
▁increased 1
▁consiglio 1
prene 1
▁Dating 1
umul 1
ujourd 1
▁Estos 1
▁Pack 1
acen 1
▁Fahrzeug 1
▁cens 1
tainment 1
ommage 1
▁constant 1
▁Att 1
▁selección 1
ènes 1
âteau 1
hema 1
host 1
bew 1
quem 1
▁background 1
▁diventare 1
▁07 1
Des 1
▁décidé 1
▁lines 1
▁junge 1
▁prêt 1
▁frust 1
issimi 1
▁Terra 1
▁principe 1
tite 1
▁iron 1
▁personajes 1
▁Verkauf 1
▁dimensioni 1
▁horiz 1
▁Bob 1
▁1) 1
▁Espe 1
▁Praxis 1
quilla 1
▁inicio 1
▁files 1
▁tipos 1
▁solicit 1
Por 1
▁ingen 1
▁refus 1
▁respectiv 1
▁innovative 1
uestro 1
▁Schwarz 1
▁largest 1
▁acto 1
aran 1
▁hechos 1
▁sons 1
entan 1
endant 1
▁buenas 1
asis 1
chner 1
▁14. 1
▁Sistema 1
▁laut 1
▁Wetter 1
gnato 1
uré 1
▁massima 1
▁Kirche 1
▁herramientas 1
41 1
GE 1
▁Seine 1
▁Immobili 1
▁verein 1
▁Rencontre 1
edizione 1
grün 1
▁Card 1
industrie 1
ropol 1
▁Community 1
▁Folge 1
atus 1
énom 1
▁park 1
íp 1
critto 1
▁sv 1
▁Soci 1
iving 1
▁Find 1
▁cred 1
▁creative 1
tieg 1
▁abit 1
grade 1
▁13. 1
▁animales 1
▁distanza 1
indow 1
▁Wür 1
ordine 1
▁passione 1
▁dispone 1
▁autori 1
For 1
▁specie 1
INE 1
▁Bonjour 1
▁disposición 1
aters 1
▁Network 1
▁voto 1
▁although 1
grö 1
udem 1
▁bron 1
▁talent 1
▁Fili 1
▁puerta 1
over 1
▁Moder 1
▁alimentos 1
▁cheap 1
▁Java 1
astanza 1
▁costruzione 1
teste 1
▁Beste 1
▁Game 1
▁amigo 1
▁Asocia 1
archite 1
▁fahren 1
▁ID 1
âtre 1
▁Roman 1
▁cron 1
▁ocasiones 1
tio 1
▁Wunsch 1
▁Found 1
▁procedure 1
▁IL 1
▁erklärt 1
▁Organisation 1
▁Version 1
cata 1
▁Québec 1
▁novità 1
▁Schritt 1
▁prevent 1
▁Other 1
▁increasing 1
▁sogen 1
▁Perché 1
▁Spie 1
▁avete 1
▁damage 1
▁Ost 1
▁William 1
▁podrás 1
▁views 1
espace 1
geld 1
▁immediately 1
vain 1
▁Selon 1
▁reviews 1
▁vendredi 1
zone 1
▁rules 1
▁composi 1
▁Aktiv 1
rolog 1
ancing 1
▁culturale 1
▁Anna 1
fficio 1
▁ador 1
▁larga 1
▁05 1
▁démo 1
▁enfermedad 1
laden 1
anlage 1
▁select 1
▁ufficiale 1
là 1
▁Journal 1
▁extr 1
dd 1
▁phr 1
▁bases 1
zca 1
town 1
▁económico 1
▁partager 1
▁propuesta 1
uchten 1
▁permettent 1
▁excelente 1
▁formal 1
▁Rund 1
▁scena 1
▁garage 1
▁interesante 1
esses 1
▁membre 1
oral 1
▁visage 1
▁delic 1
▁trend 1
▁Montag 1
▁Hospital 1
▁cells 1
NO 1
▁comfortable 1
▁confe 1
▁agrade 1
▁Día 1
▁Vert 1
▁Tun 1
▁factor 1
idet 1
pare 1
▁responsible 1
▁verbunden 1
▁ermöglich 1
iement 1
▁Ron 1
▁hält 1
▁dovuto 1
ishing 1
▁changement 1
▁aree 1
tten 1
dium 1
▁selection 1
schrift 1
▁particularly 1
▁Russia 1
▁arriver 1
attle 1
▁Rest 1
▁sabato 1
▁businesses 1
▁useful 1
nische 1
▁street 1
rolle 1
▁investment 1
▁Event 1
▁municipal 1
▁Leistung 1
▁length 1
terne 1
▁libertà 1
main 1
▁offered 1
▁propriet 1
▁segnal 1
▁Puis 1
▁Santiago 1
Der 1
Les 1
tip 1
▁12, 1
▁tienda 1
▁whose 1
▁jornada 1
▁ín 1
▁employees 1
▁status 1
▁Pil 1
▁expert 1
▁insp 1
▁Islam 1
▁ripor 1
▁manger 1
▁Gratis 1
irá 1
▁tradizione 1
▁Develop 1
motion 1
▁Minist 1
▁nearly 1
isez 1
kunden 1
▁discre 1
▁serious 1
▁reform 1
77 1
▁suffer 1
▁souvenir 1
▁Ps 1
zahlen 1
▁inversión 1
▁calor 1
▁artículos 1
▁fenomen 1
vamente 1
set 1
▁merav 1
▁offering 1
▁Mis 1
▁2011, 1
accès 1
86 1
▁ran 1
▁clave 1
▁Mobile 1
aming 1
áticas 1
▁relevant 1
hilfe 1
▁guys 1
▁titular 1
▁età 1
esia 1
▁Court 1
▁afford 1
▁sechs 1
▁pala 1
▁teen 1
▁objeto 1
▁mature 1
▁apertura 1
▁wrote 1
üm 1
▁durata 1
▁aspects 1
bb 1
▁facilit 1
▁Comisión 1
▁adegu 1
▁coord 1
▁appunta 1
▁Santo 1
▁delivery 1
dite 1
▁partout 1
▁devices 1
▁Reich 1
▁unterstützt 1
▁folgenden 1
duction 1
▁Today 1
▁Wol 1
▁Cher 1
▁Kurs 1
▁divor 1
Est 1
▁chambres 1
utte 1
▁pool 1
▁œuvre 1
▁vuelta 1
énergie 1
▁Berufs 1
zös 1
▁lack 1
▁pagar 1
▁Cost 1
▁parent 1
▁annivers 1
arre 1
ciente 1
▁extran 1
▁comuni 1
▁medico 1
▁thank 1
▁souhaitez 1
rence 1
programm 1
▁Wolf 1
▁Engine 1
▁Council 1
▁pagine 1
▁damals 1
▁opportunities 1
All 1
▁patron 1
▁combin 1
zeichen 1
▁adulti 1
▁destro 1
▁Call 1
▁sufri 1
▁accident 1
▁hundred 1
▁Ansp 1
▁Global 1
▁Refer 1
▁compromiso 1
ologías 1
▁broad 1
imismo 1
▁Science 1
ciden 1
▁bour 1
▁ecco 1
▁perc 1
▁Human 1
isième 1
▁Sicht 1
oder 1
▁rilas 1
▁tels 1
▁Eth 1
▁bande 1
▁rosa 1
ängt 1
▁OS 1
atas 1
▁erreicht 1
état 1
term 1
▁Christo 1
▁corsi 1
▁völlig 1
▁Aujourd 1
▁portato 1
▁komplett 1
▁libero 1
ennis 1
▁bons 1
▁ganar 1
▁entry 1
unning 1
▁riguard 1
▁visitar 1
▁alo 1
▁inglese 1
fiz 1
▁trust 1
▁livelli 1
▁experienced 1
unid 1
▁abbastanza 1
▁Original 1
▁fourn 1
▁piu 1
▁Papa 1
▁aiut 1
bedingt 1
▁’ 1
otas 1
▁activité 1
▁telle 1
▁Poten 1
▁changed 1
▁liebe 1
▁denunci 1
istant 1
▁europeo 1
schließend 1
▁oferta 1
▁visuali 1
verez 1
▁éste 1
▁Freitag 1
jen 1
▁intorno 1
▁früh 1
▁Meine 1
▁prohib 1
▁actuellement 1
▁straight 1
▁sicuro 1
2- 1
rici 1
▁tips 1
▁peace 1
ionato 1
▁Beginn 1
▁Besucher 1
äume 1
▁perdu 1
▁uniquement 1
▁mue 1
▁inaugur 1
▁categoría 1
▁continuer 1
▁lap 1
aines 1
▁Rés 1
ricas 1
▁vitt 1
▁dallo 1
▁anali 1
▁paris 1
▁tall 1
hinder 1
pap 1
▁höher 1
▁Monate 1
▁lavorare 1
▁totalement 1
▁talking 1
▁Light 1
ére 1
▁Num 1
▁setting 1
▁Geburts 1
▁Ble 1
▁Core 1
anie 1
acters 1
schung 1
▁funciones 1
▁gere 1
▁adesso 1
uchs 1
▁turismo 1
Per 1
▁jobs 1
▁Abbiamo 1
attet 1
▁controll 1
▁normativa 1
▁ner 1
möglichkeiten 1
win 1
▁recl 1
▁garde 1
▁chauss 1
Aut 1
▁jederzeit 1
folge 1
▁danach 1
▁Under 1
genden 1
aje 1
äufer 1
▁piatta 1
derung 1
▁trading 1
bad 1
▁dens 1
erdì 1
▁nied 1
▁selten 1
▁ouvert 1
▁century 1
ERS 1
olie 1
▁Canad 1
▁16. 1
venture 1
bourg 1
alys 1
▁Gewinn 1
rieren 1
▁musul 1
▁unterstützen 1
▁territoire 1
▁Tutto 1
diction 1
tischer 1
▁Cla 1
▁supplément 1
▁ricetta 1
▁champion 1
▁Institute 1
place 1
▁thème 1
urato 1
▁Lire 1
▁capaz 1
▁irre 1
▁Bayern 1
▁amoure 1
▁argument 1
▁téléchar 1
▁neur 1
▁physique 1
▁cumplir 1
▁numbers 1
tiendo 1
▁critic 1
▁comentarios 1
▁demanda 1
▁Dor 1
▁wear 1
▁Bol 1
▁56 1
▁powerful 1
▁Rab 1
▁macchina 1
importe 1
▁Menge 1
▁distingu 1
friend 1
habil 1
▁bomb 1
▁ausgest 1
▁migliorare 1
▁fines 1
íd 1
▁veter 1
▁instalaciones 1
▁communauté 1
▁agréable 1
▁référence 1
▁legisla 1
▁escuela 1
▁regarding 1
▁Fue 1
▁Civil 1
▁objetivos 1
lare 1
llywood 1
▁2014. 1
▁sympt 1
▁participation 1
ulé 1
▁keiner 1
DI 1
▁Food 1
▁grat 1
▁ausgew 1
▁tests 1
-19 1
▁suffit 1
▁poe 1
▁appropriate 1
agon 1
publique 1
▁fotogra 1
▁load 1
▁semin 1
nore 1
▁Turn 1
▁ET 1
voluzione 1
▁mesa 1
▁spielt 1
▁espace 1
enni 1
tex 1
▁vidéos 1
PC 1
▁commencer 1
▁elegir 1
▁ú 1
econom 1
▁prensa 1
▁pratiques 1
▁compared 1
▁lato 1
enschaft 1
▁tiro 1
▁desem 1
▁essa 1
▁renfor 1
inario 1
eline 1
▁verfüg 1
▁contenidos 1
▁detail 1
▁opinión 1
adresse 1
▁dopp 1
▁Mitte 1
▁standards 1
▁Line 1
▁dovrà 1
▁14, 1
▁passare 1
▁Initi 1
▁liberté 1
▁Tab 1
html 1
▁indipend 1
▁spese 1
▁kont 1
▁reports 1
▁gratuite 1
timas 1
eits 1
▁ritmo 1
▁vern 1
▁dank 1
▁ór 1
▁suced 1
▁extremely 1
gration 1
èque 1
▁descon 1
▁presto 1
▁François 1
hältnis 1
▁max 1
ussion 1
▁nonché 1
▁pus 1
limin 1
▁proposta 1
▁unten 1
▁Ka 1
▁Frankfurt 1
▁Weitere 1
▁Umgebung 1
▁sint 1
chnet 1
▁bonnes 1
▁consape 1
uels 1
▁Tos 1
▁fred 1
hors 1
▁spread 1
▁MAR 1
▁registro 1
leiter 1
▁acheter 1
qua 1
▁aspectos 1
▁Dub 1
▁memory 1
▁vio 1
seiten 1
▁Sou 1
▁Zudem 1
▁situé 1
▁interro 1
▁Hotels 1
jährige 1
▁vertra 1
▁chair 1
▁overall 1
scher 1
▁Jav 1
▁situations 1
aled 1
▁seines 1
▁Ry 1
▁cuestion 1
▁rip 1
ext 1
▁concess 1
▁acceder 1
ónde 1
bedingungen 1
odi 1
▁trotzdem 1
▁Schuhe 1
▁percep 1
lights 1
▁regalo 1
jou 1
icac 1
▁Femme 1
▁eserci 1
▁Entscheidung 1
▁rápido 1
▁scuole 1
▁arran 1
▁Akt 1
yed 1
▁médico 1
▁Fas 1
▁(10 1
▁ö 1
▁easier 1
mato 1
▁credi 1
▁jeweiligen 1
ancement 1
▁2010, 1
▁puissance 1
▁fly 1
▁eres 1
▁Aufgaben 1
äuft 1
▁fame 1
▁greater 1
▁entstand 1
▁trag 1
▁Indian 1
▁Scu 1
teggi 1
system 1
▁déta 1
▁campagna 1
▁Mater 1
▁voice 1
▁suerte 1
avor 1
▁Sum 1
▁Eff 1
▁Firenze 1
iesto 1
▁pérd 1
▁mêmes 1
▁plug 1
▁Incontri 1
▁Cass 1
▁seguenti 1
▁conséqu 1
▁durable 1
▁vía 1
▁Schön 1
▁thanks 1
▁strutture 1
▁valori 1
▁Pré 1
ándo 1
▁cloud 1
▁Syn 1
▁Webseite 1
▁études 1
▁Edi 1
▁poor 1
▁confli 1
▁merito 1
▁gleichzeitig 1
▁diretta 1
arra 1
▁Sici 1
▁Sach 1
occupa 1
▁Bat 1
...... 1
▁capacité 1
▁búsqueda 1
▁Champions 1
▁Siamo 1
▁Situation 1
▁Bour 1
ching 1
▁técnica 1
▁Dass 1
▁queremos 1
taus 1
▁courses 1
▁frut 1
inois 1
gebiet 1
villa 1
▁admi 1
▁dix 1
kno 1
ows 1
▁modelos 1
orgung 1
würd 1
hoben 1
row 1
▁cependant 1
rugg 1
amica 1
ting 1
▁attribu 1
▁oggetto 1
▁Kenn 1
▁truth 1
▁permettra 1
▁bathroom 1
▁jueves 1
írit 1
▁Industrie 1
ço 1
ühl 1
Aus 1
▁piazza 1
dar 1
▁Même 1
▁Partners 1
▁Donc 1
▁subje 1
▁Casti 1
▁entit 1
▁Lun 1
▁aport 1
▁gestellt 1
▁lab 1
▁Quelle 1
▁moteur 1
▁Pon 1
▁gewähr 1
Europa 1
▁society 1
▁85 1
▁flash 1
useppe 1
abetes 1
vons 1
▁Bewer 1
FA 1
▁Mex 1
▁wei 1
▁finalement 1
▁prati 1
▁española 1
▁quotidien 1
otter 1
▁técnicas 1
▁Cup 1
▁préc 1
▁17. 1
▁Fußball 1
▁Pablo 1
▁Ses 1
▁wedding 1
chenk 1
▁AV 1
▁habitants 1
▁opinion 1
arca 1
▁360 1
▁souhaite 1
▁faith 1
▁maggiori 1
▁moral 1
▁fera 1
▁ovviamente 1
▁abrir 1
▁aperto 1
▁Roberto 1
▁weiterhin 1
▁variedad 1
▁amplia 1
▁aren 1
ández 1
vely 1
▁gobern 1
▁sottoline 1
▁2) 1
▁lì 1
▁bol 1
emploi 1
▁couldn 1
▁characters 1
▁Dro 1
▁Education 1
▁duro 1
hô 1
▁Aires 1
▁Lösung 1
▁essential 1
▁politici 1
▁Cependant 1
iar 1
▁Because 1
oring 1
▁cuidado 1
ticia 1
fragen 1
▁pacientes 1
garten 1
▁moved 1
▁belles 1
▁estrat 1
▁mitad 1
▁particolarmente 1
▁Mik 1
▁Schwer 1
ützt 1
▁effectu 1
▁cercare 1
▁Natürlich 1
tegia 1
ricul 1
clos 1
▁chaud 1
▁According 1
▁farlo 1
▁Ausbildung 1
▁beschäf 1
▁ermöglicht 1
▁accès 1
▁disk 1
▁relie 1
▁erinner 1
liga 1
▁maintenance 1
▁earlier 1
▁tendance 1
▁parfaitement 1
lange 1
▁fruits 1
▁** 1
tification 1
▁Eis 1
appr 1
impression 1
here 1
▁laboral 1
▁explos 1
▁Water 1
▁Rat 1
▁adm 1
▁Urlaub 1
geführt 1
▁norme 1
▁articoli 1
▁hosp 1
▁diverso 1
-20 1
▁moderno 1
izzare 1
▁Nutzer 1
▁Republic 1
▁rank 1
▁derzeit 1
▁deberá 1
▁Yes 1
▁husband 1
▁sinn 1
▁Smith 1
nungs 1
▁partage 1
▁Angebote 1
icato 1
▁italiane 1
iati 1
/11 1
zan 1
unting 1
▁energia 1
ontan 1
▁charges 1
▁welcher 1
▁Chaque 1
▁scolas 1
▁eat 1
▁garantire 1
Ins 1
▁Disney 1
▁HP 1
▁consent 1
▁escribir 1
▁dedicata 1
▁ziemlich 1
association 1
▁municipio 1
▁Franco 1
uté 1
▁azienda 1
▁desk 1
CS 1
▁Eso 1
▁politiche 1
▁publication 1
▁aplicaciones 1
inander 1
ulf 1
▁rout 1
▁Bedeutung 1
êter 1
▁Sala 1
▁propriéta 1
usura 1
▁quota 1
▁Français 1
▁espacios 1
▁danno 1
▁presentazione 1
ücks 1
orale 1
▁Nation 1
:1 1
▁Dise 1
mmo 1
leo 1
ruf 1
gericht 1
▁suficiente 1
zeigen 1
alerie 1
▁annual 1
reiber 1
88 1
▁essen 1
▁Sele 1
▁IM 1
▁Due 1
▁Desarro 1
omento 1
mania 1
▁trasform 1
rastruct 1
▁dific 1
▁quién 1
utente 1
▁letzte 1
▁pruebas 1
▁atto 1
▁Add 1
▁kiló 1
▁laws 1
▁perse 1
apie 1
▁aun 1
▁Firmen 1
▁decre 1
▁Luego 1
estión 1
▁Portug 1
▁Elles 1
Cu 1
▁ressources 1
▁Umwelt 1
▁communi 1
▁principios 1
▁nä 1
▁giardino 1
fal 1
▁suici 1
timenti 1
▁military 1
▁established 1
▁douce 1
▁estás 1
▁described 1
▁cock 1
▁Learn 1
ttes 1
ku 1
▁civili 1
komm 1
ceed 1
▁devez 1
;; 1
▁exer 1
iring 1
▁ciudades 1
▁gruppi 1
▁Diego 1
▁crema 1
▁west 1
▁toma 1
ubil 1
▁Satz 1
titut 1
wesome 1
▁lettura 1
rt 1
▁Bologna 1
▁reven 1
▁Wed 1
iglich 1
▁weather 1
llet 1
ulare 1
▁politico 1
▁instrum 1
▁differenti 1
▁pieds 1
dessus 1
▁diez 1
▁velocità 1
▁Mov 1
▁aso 1
▁perso 1
▁reasons 1
▁Donn 1
▁Toute 1
▁Ing 1
afft 1
▁Mail 1
▁groupes 1
▁quin 1
▁wobei 1
▁parcours 1
▁Eas 1
▁descu 1
▁Donald 1
▁Cav 1
▁scola 1
▁bellezza 1
▁Lam 1
▁intelle 1
▁Cruz 1
▁neuer 1
▁éviter 1
▁posts 1
▁affect 1
▁positivo 1
▁stare 1
▁Städ 1
álogo 1
▁Valent 1
▁Verk 1
▁generally 1
▁próxim 1
dici 1
▁lavoratori 1
▁clo 1
▁prostitu 1
▁canal 1
▁coû 1
▁Allerdings 1
antages 1
leitet 1
edy 1
lain 1
idential 1
rough 1
▁Sens 1
▁gern 1
▁lois 1
▁empfehlen 1
▁vecin 1
▁commerce 1
▁devra 1
▁García 1
▁behand 1
mitted 1
reibt 1
▁alqu 1
ológica 1
richtungen 1
▁Angaben 1
▁Psych 1
▁gift 1
▁tales 1
▁environnement 1
ósito 1
lisch 1
▁Times 1
▁escal 1
eness 1
▁bottom 1
▁Squ 1
▁voilà 1
ns 1
vió 1
▁reality 1
▁Dispon 1
▁editori 1
▁estará 1
▁contraire 1
▁perfecto 1
▁collaboration 1
▁tragen 1
▁Technik 1
iertas 1
▁chiaro 1
▁99 1
▁voulez 1
▁earth 1
▁connection 1
▁geschrieben 1
äuser 1
zlich 1
▁mos 1
▁immig 1
atar 1
You 1
▁fruit 1
Af 1
▁Clau 1
dule 1
▁Hot 1
▁Lee 1
itano 1
▁wert 1
▁guarante 1
▁income 1
▁Tes 1
▁notif 1
▁Gefühl 1
▁Nik 1
▁freund 1
▁Strand 1
ércoles 1
▁zusätzlich 1
▁Store 1
▁Special 1
▁allowed 1
pfen 1
genza 1
▁ster 1
▁Ira 1
▁topic 1
▁sépar 1
lioteca 1
▁übern 1
iertos 1
▁cycle 1
▁payment 1
visor 1
▁Meinung 1
▁colum 1
▁statement 1
▁Donne 1
▁quantità 1
▁políticos 1
▁facilmente 1
▁Cultura 1
ATO 1
ec 1
▁Barb 1
▁Nu 1
▁moglie 1
▁assign 1
▁Mobil 1
▁sangre 1
▁increment 1
▁Meter 1
▁Rose 1
▁verbess 1
▁Repubblica 1
▁règles 1
clo 1
▁Invest 1
▁comments 1
▁sugger 1
▁zumindest 1
▁troisième 1
▁Stock 1
▁Forma 1
▁ciudadanos 1
▁Chicago 1
▁potranno 1
▁dépend 1
▁equival 1
▁primary 1
schlä 1
▁miedo 1
▁perhaps 1
▁700 1
▁Monday 1
▁somm 1
itamente 1
▁sì 1
impos 1
▁genommen 1
▁Vater 1
") 1
▁regarder 1
▁Install 1
66 1
▁cuyo 1
▁Royal 1
▁arbit 1
uner 1
▁souten 1
scheinlich 1
issons 1
waltung 1
▁Asociación 1
▁complement 1
▁minuto 1
▁Ayuntamiento 1
▁Brown 1
▁existing 1
▁Virgin 1
▁propag 1
300 1
▁esiste 1
▁tenden 1
▁destra 1
▁NE 1
▁machines 1
▁soutien 1
gart 1
▁terres 1
▁asoci 1
▁Jim 1
▁Tam 1
▁viaggi 1
▁Quindi 1
▁Links 1
▁Benutz 1
oto 1
▁piccole 1
▁Sav 1
üb 1
pflicht 1
▁probabilmente 1
▁avevano 1
bilità 1
▁urg 1
▁rooms 1
▁administración 1
▁intégr 1
▁tier 1
▁Joseph 1
▁Anbieter 1
▁caractère 1
▁citoy 1
▁Bir 1
▁52 1
▁eventuali 1
▁bibli 1
▁potrebbero 1
▁nasce 1
▁owner 1
arli 1
▁shot 1
▁dû 1
▁mec 1
▁famoso 1
▁pleas 1
▁acquistare 1
ientras 1
▁estuvo 1
▁separate 1
achte 1
▁oss 1
▁voie 1
▁deme 1
▁Betriebs 1
▁catalog 1
▁diversos 1
▁ruh 1
▁proposer 1
uovere 1
▁páginas 1
mern 1
▁Gruppen 1
▁estadounid 1
▁Uniti 1
adap 1
▁turno 1
proje 1
▁vigil 1
▁perdita 1
struction 1
▁défin 1
▁estructura 1
▁Riv 1
▁sembl 1
abase 1
▁efici 1
▁distancia 1
érée 1
▁Congreso 1
▁dream 1
▁driver 1
ICO 1
▁cards 1
rass 1
▁Così 1
wur 1
▁buscando 1
timmt 1
mique 1
velo 1
not 1
▁66 1
undos 1
": 1
▁Provincia 1
▁Use 1
seur 1
▁Golf 1
▁magn 1
ingue 1
▁exci 1
▁cable 1
▁homes 1
▁Fü 1
▁desapare 1
▁Jud 1
cados 1
▁valutazione 1
ackt 1
▁recommand 1
▁russ 1
▁Köln 1
▁rus 1
▁ED 1
▁esco 1
▁zweite 1
▁pesos 1
ciación 1
▁Hanno 1
▁arres 1
▁160 1
▁concepto 1
daten 1
▁soins 1
▁mete 1
▁devi 1
▁Georg 1
▁Alles 1
▁Sebas 1
▁prosp 1
▁schließlich 1
▁Hersteller 1
osh 1
vierte 1
▁Alt 1
éder 1
▁dicha 1
baj 1
▁Algun 1
▁funktioniert 1
▁accessible 1
▁realiza 1
▁sli 1
▁modèles 1
▁therap 1
▁Versand 1
▁direzione 1
▁großer 1
▁verità 1
▁concours 1
▁pista 1
▁empezar 1
▁Lic 1
▁older 1
▁Geh 1
▁records 1
▁instituciones 1
▁bloque 1
▁Abschluss 1
zentrum 1
jeta 1
▁sca 1
▁Chance 1
▁attre 1
▁garder 1
enco 1
▁destination 1
▁golf 1
▁comien 1
▁lundi 1
87 1
Par 1
▁gepl 1
▁buenos 1
▁friendly 1
▁Sat 1
▁angeboten 1
▁confianza 1
mpt 1
▁cita 1
ometri 1
▁técnico 1
▁restaurants 1
aks 1
▁Rela 1
ífica 1
▁Rand 1
▁Child 1
▁defensa 1
▁beneficios 1
leistung 1
▁Gebäude 1
▁influence 1
▁finding 1
andis 1
nissen 1
▁déli 1
89 1
iker 1
CR 1
▁utilizzato 1
jährigen 1
▁contenuto 1
▁Gén 1
.), 1
immel 1
▁étrang 1
istique 1
▁gard 1
ísimo 1
▁chiar 1
▁fach 1
▁golpe 1
▁implic 1
▁perdre 1
▁cialis 1
▁produced 1
▁ordine 1
▁item 1
▁Sonnen 1
▁solito 1
ettato 1
▁bic 1
▁interne 1
▁gone 1
▁Angeles 1
▁rode 1
▁iniz 1
▁goals 1
▁Conne 1
curso 1
▁95 1
▁Security 1
▁richtige 1
entrée 1
▁Rog 1
club 1
▁lands 1
▁Giuseppe 1
ostro 1
▁importance 1
öne 1
ener 1
▁AB 1
▁Two 1
SP 1
▁darle 1
▁beginnt 1
▁PA 1
▁riun 1
▁negative 1
▁excit 1
▁IR 1
▁Pues 1
▁official 1
▁stets 1
▁tube 1
rimoni 1
▁Publik 1
▁Key 1
Innen 1
▁Reihe 1
cean 1
▁áreas 1
▁zahlreiche 1
▁steps 1
▁Ford 1
free 1
▁cold 1
▁récup 1
▁Olymp 1
▁compre 1
▁movement 1
▁conception 1
▁fidu 1
▁erkennen 1
chtig 1
▁Extra 1
▁Zusammenarbeit 1
▁matrimoni 1
▁Quali 1
öffnet 1
▁winter 1
▁festa 1
▁paura 1
maß 1
▁cord 1
▁Preise 1
▁cena 1
▁vulner 1
▁coffee 1
▁auton 1
▁therefore 1
▁Bot 1
▁verte 1
▁senior 1
ail 1
verkehr 1
érant 1
▁Rosa 1
▁domande 1
▁announced 1
▁named 1
▁könnten 1
▁réflex 1
▁Krank 1
▁Muj 1
▁During 1
▁carico 1
▁Beratung 1
▁convo 1
▁Salz 1
▁pertin 1
▁rifl 1
▁Ken 1
▁Like 1
▁Gior 1
▁conex 1
▁Weihnachts 1
▁faute 1
▁suspend 1
érez 1
▁directeur 1
▁kri 1
▁heavy 1
▁Sprache 1
tiste 1
▁vollständ 1
▁piscine 1
▁Az 1
▁wire 1
▁helping 1
sal 1
▁automo 1
ivre 1
▁org 1
inken 1
▁vuoi 1
▁presented 1
▁Oltre 1
▁193 1
pan 1
▁Four 1
▁protes 1
▁Mie 1
pers 1
▁highest 1
▁reag 1
▁trad 1
▁diplom 1
Go 1
▁profonde 1
▁zap 1
vamo 1
osamente 1
▁Kons 1
▁strategy 1
▁pieces 1
▁Year 1
▁defend 1
▁Senior 1
▁sugli 1
▁scoprire 1
▁ultime 1
uvres 1
▁priva 1
▁grab 1
éndose 1
evento 1
▁esfuerzo 1
▁moderna 1
emblée 1
erseits 1
ktive 1
OU 1
verein 1
▁empleo 1
chia 1
▁02 1
gets 1
▁Old 1
▁personaggi 1
chung 1
obiettivo 1
▁schaffen 1
analyse 1
▁personnages 1
▁Edit 1
▁Rome 1
izzato 1
quiera 1
▁milli 1
▁religion 1
▁musicale 1
berger 1
agni 1
▁possibili 1
erdo 1
▁2013. 1
▁allez 1
▁Ye 1
▁atrás 1
▁tranquill 1
pour 1
▁Leistungs 1
▁artista 1
▁died 1
▁Strateg 1
wald 1
▁Premio 1
▁attiv 1
▁pleine 1
▁Außen 1
▁dial 1
▁playa 1
▁Versicher 1
▁helped 1
▁perfekt 1
▁internacionales 1
▁Lake 1
▁Zahn 1
▁schönen 1
▁familles 1
▁Ganz 1
objet 1
ánica 1
▁110 1
uegos 1
▁Rap 1
▁streaming 1
onato 1
▁commerciali 1
▁Kampf 1
issements 1
▁EX 1
volucion 1
▁fiesta 1
kea 1
▁ehemal 1
▁carb 1
von 1
époque 1
▁haga 1
▁agent 1
▁professionnelle 1
endere 1
tention 1
▁QU 1
▁11, 1
▁altura 1
nous 1
sión 1
▁Cloud 1
▁Liste 1
▁Ferr 1
▁ajout 1
yr 1
▁FA 1
▁habla 1
▁Gesù 1
gän 1
▁assolutamente 1
▁mètres 1
▁fabri 1
NE 1
▁ropa 1
▁humor 1
▁Transport 1
▁gelten 1
▁accus 1
▁Kaffe 1
▁Monat 1
räger 1
▁clases 1
akes 1
zeugt 1
ziert 1
▁perfil 1
▁Bek 1
▁bestimmt 1
▁Ach 1
▁tamb 1
▁anderes 1
ORT 1
ünsche 1
▁Zustand 1
iale 1
IEN 1
encial 1
▁sinon 1
▁dunk 1
▁raus 1
▁momenti 1
▁unseres 1
agan 1
hotel 1
GR 1
▁explique 1
▁Liga 1
▁Sache 1
▁render 1
sei 1
▁Seguridad 1
▁Anne 1
▁Universität 1
▁offrir 1
▁Anzahl 1
économ 1
▁Fenster 1
▁premières 1
▁Verl 1
▁Respons 1
▁followed 1
geschichte 1
interest 1
▁valu 1
▁telefono 1
▁completed 1
film 1
▁alternativa 1
forte 1
▁desarrollar 1
▁04 1
mitte 1
teuer 1
hips 1
▁Komb 1
▁cerve 1
Università 1
▁Mientras 1
▁elements 1
▁Mu 1
▁Pin 1
▁tomb 1
▁Erd 1
▁catégorie 1
kas 1
▁Ehe 1
▁produt 1
▁schwarz 1
hende 1
çant 1
▁determine 1
▁(" 1
▁rense 1
▁Metho 1
âge 1
ME 1
▁promotion 1
llar 1
▁flow 1
▁gaz 1
but 1
▁biss 1
▁Page 1
▁Miche 1
▁CL 1
▁zent 1
▁acon 1
testen 1
craft 1
obje 1
▁Jung 1
monie 1
urare 1
ötz 1
▁Pad 1
▁pio 1
▁globale 1
Sa 1
▁lad 1
▁BR 1
▁rosso 1
▁Valencia 1
▁Fantas 1
▁happened 1
▁hyp 1
▁islam 1
ficazione 1
▁regione 1
▁développer 1
▁corto 1
▁ofici 1
▁Verwendung 1
▁Details 1
▁gespe 1
▁ecce 1
▁Iglesia 1
▁naturales 1
▁réalisé 1
wohn 1
▁contains 1
▁window 1
▁laure 1
▁verse 1
möglichen 1
▁ricor 1
▁numerosi 1
▁potete 1
▁Regional 1
▁conscience 1
▁SA 1
éros 1
▁faite 1
▁responsabile 1
▁ámbito 1
▁association 1
▁vitesse 1
▁Carlo 1
▁140 1
▁autob 1
▁Londres 1
▁liquid 1
▁quieren 1
▁SU 1
terà 1
pré 1
▁teaching 1
▁mesures 1
▁présenter 1
Bl 1
▁Tru 1
▁Inhalt 1
▁Monaten 1
raison 1
ética 1
▁venez 1
▁Lor 1
▁colaboración 1
▁sorgt 1
ggetto 1
ilio 1
ienze 1
cedes 1
▁osser 1
▁scelto 1
▁actualmente 1
▁Deshalb 1
▁traffic 1
▁Games 1
▁stelle 1
cale 1
ranger 1
▁Custom 1
▁agents 1
ualité 1
quels 1
▁solle 1
▁opening 1
▁Phil 1
▁tutela 1
inu 1
▁Gedanken 1
▁naturali 1
▁psy 1
▁debemos 1
aktion 1
flug 1
tegno 1
▁cuestión 1
▁madera 1
▁bient 1
ètes 1
▁impianti 1
andid 1
▁seien 1
▁erforderlich 1
▁Chris 1
▁critical 1
arlos 1
▁passaggio 1
▁dismin 1
▁gagner 1
▁proximité 1
▁Who 1
life 1
▁cup 1
▁bond 1
▁muest 1
▁espl 1
▁perci 1
igten 1
▁reunión 1
kam 1
▁DC 1
▁acid 1
▁appli 1
▁Leistungen 1
▁2012. 1
▁classic 1
tato 1
ünsch 1
▁choisi 1
▁Sehr 1
erweise 1
▁Etats 1
▁EP 1
rise 1
▁Pes 1
▁10% 1
▁dispose 1
annen 1
▁settimane 1
▁erh 1
FC 1
▁poser 1
▁verstehen 1
▁cá 1
▁deleg 1
▁reçu 1
▁asia 1
▁erhe 1
▁apenas 1
▁president 1
▁Wissenschaft 1
media 1
▁experiences 1
▁Jon 1
▁57 1
▁dang 1
▁colabor 1
?) 1
Los 1
äten 1
▁respir 1
▁ár 1
/2 1
▁puisse 1
▁conver 1
▁herr 1
▁apart 1
▁Did 1
▁rule 1
▁driving 1
▁públicos 1
icanos 1
▁veloce 1
▁pudo 1
▁intim 1
tividad 1
▁personnage 1
▁Punkt 1
▁slight 1
veille 1
▁fortale 1
point 1
▁Option 1
▁propres 1
▁Puerto 1
▁counter 1
▁raggiung 1
oner 1
▁hogar 1
▁spettacolo 1
▁remer 1
▁outdoor 1
▁aspetta 1
▁sharing 1
▁visión 1
aci 1
▁persönlichen 1
rono 1
attare 1
▁chirurg 1
▁läuft 1
▁preno 1
▁Premier 1
▁ug 1
west 1
▁Win 1
▁ahead 1
▁carbon 1
▁kill 1
▁kept 1
éral 1
▁Camb 1
▁funcionamiento 1
prende 1
▁Report 1
attend 1
lié 1
▁leadership 1
▁names 1
▁expans 1
▁seeing 1
▁magnifique 1
▁Control 1
ZA 1
angu 1
▁pomer 1
▁teams 1
400 1
expérience 1
dra 1
ancen 1
blichen 1
▁unbedingt 1
acher 1
▁trouverez 1
cemos 1
▁heuti 1
itat 1
▁requi 1
▁Chap 1
iencias 1
▁maest 1
▁chercher 1
▁diversas 1
▁demi 1
▁1999 1
▁tenere 1
▁azioni 1
▁acept 1
▁potenza 1
▁Annunci 1
capa 1
▁Andre 1
▁Prozess 1
▁vende 1
▁fus 1
▁aid 1
estar 1
▁Poly 1
▁Privat 1
▁masch 1
▁Tech 1
▁gris 1
▁alcal 1
▁giud 1
▁fascin 1
▁Meister 1
▁Audi 1
rot 1
▁Week 1
▁fuente 1
▁utiliza 1
▁propios 1
▁beauty 1
▁Front 1
onge 1
politik 1
▁funzioni 1
▁fuoco 1
▁etapa 1
▁tren 1
▁leb 1
▁scom 1
▁llamada 1
▁intui 1
▁3- 1
▁réd 1
▁fornire 1
▁organisation 1
▁hip 1
▁condivid 1
▁obv 1
▁Sha 1
▁lin 1
▁presentar 1
▁ritorno 1
ennung 1
▁relativi 1
▁mantiene 1
▁Micro 1
▁términos 1
▁Gesundheits 1
▁habitaciones 1
list 1
uttore 1
▁pref 1
▁Sinn 1
▁unidad 1
▁Amp 1
pul 1
MO 1
▁outils 1
▁candidato 1
▁Wood 1
▁sín 1
▁scand 1
▁superi 1
▁Sinne 1
▁peuple 1
▁boutique 1
▁magazine 1
▁escrito 1
gestell 1
íficos 1
idel 1
▁Décou 1
▁Watch 1
▁bestä 1
riage 1
▁served 1
ouv 1
▁issu 1
▁faccia 1
rats 1
▁medie 1
▁mattina 1
▁definitiva 1
eli 1
▁repair 1
▁sweet 1
▁voici 1
▁Rhein 1
▁spar 1
wart 1
▁zero 1
▁Restaurant 1
▁(+ 1
ugo 1
aiser 1
▁Stutt 1
▁beant 1
▁Funktion 1
▁Alberto 1
▁vacanza 1
▁riesce 1
▁Fore 1
▁debería 1
▁haven 1
▁forms 1
▁ciel 1
hezza 1
▁conflit 1
acu 1
▁gleichen 1
▁participer 1
tragen 1
▁género 1
tich 1
▁européenne 1
tible 1
itoli 1
▁wichtige 1
▁larger 1
▁nerv 1
▁Wander 1
▁chans 1
▁Deux 1
▁inspe 1
▁compil 1
▁futur 1
inata 1
▁finales 1
▁Hace 1
▁montrer 1
TP 1
▁généralement 1
▁dolore 1
iettivi 1
▁angene 1
▁journey 1
▁numeros 1
▁vorbei 1
▁verme 1
▁volonté 1
▁spring 1
▁(199 1
▁daughter 1
▁miércoles 1
▁vergleich 1
karten 1
▁covered 1
▁Rus 1
íritu 1
▁Krä 1
▁Angst 1
odio 1
▁serata 1
▁Description 1
▁ours 1
▁ausschließlich 1
▁Wirtschaft 1
veur 1
iki 1
stattung 1
illos 1
▁knapp 1
▁minimo 1
▁trovano 1
onto 1
▁formar 1
ír 1
ópez 1
And 1
▁rimane 1
▁Euch 1
▁diretto 1
▁economica 1
▁impacto 1
........ 1
avec 1
alism 1
▁appartamento 1
▁lascia 1
▁placer 1
▁aktuelle 1
▁perspective 1
zada 1
dessous 1
▁comenzó 1
entwicklung 1
▁professe 1
▁goût 1
endi 1
▁tanta 1
▁internazionali 1
▁ml 1
edas 1
hers 1
▁Aquí 1
▁altern 1
▁fútbol 1
util 1
élibata 1
espère 1
▁Freude 1
▁bonheur 1
▁virtual 1
▁outre 1
▁numérique 1
▁nessun 1
holic 1
▁Pom 1
▁THE 1
▁cambiare 1
▁1990 1
▁concert 1
▁blu 1
undersch 1
▁salvo 1
▁avevo 1
▁SO 1
aldo 1
schriften 1
freund 1
▁plataforma 1
▁pill 1
präs 1
erebbe 1
▁Joe 1
▁Ref 1
▁Sul 1
▁Fehler 1
▁rapporti 1
▁mezzi 1
▁pensiero 1
▁Trotz 1
▁réseaux 1
▁Españ 1
▁caldo 1
▁parfait 1
▁eventos 1
▁pressione 1
▁ais 1
▁contrato 1
▁ship 1
▁procur 1
▁cercano 1
▁televisión 1
▁hinge 1
▁technical 1
gyp 1
▁racco 1
▁contesto 1
▁websites 1
▁Freunde 1
▁massage 1
▁privati 1
▁richtigen 1
▁Hund 1
▁epis 1
▁Punkte 1
▁matéri 1
aia 1
▁hubiera 1
▁derecha 1
edom 1
▁beb 1
fiere 1
tamos 1
79 1
▁regole 1
▁tolle 1
ccare 1
ätzlich 1
IER 1
auso 1
▁presión 1
▁entendu 1
▁Pourquoi 1
md 1
56 1
armi 1
▁enh 1
▁lay 1
▁iPad 1
inium 1
▁rival 1
▁bild 1
▁Halb 1
▁seven 1
tak 1
▁hers 1
▁metodo 1
▁values 1
▁République 1
rägt 1
▁bordo 1
ATION 1
▁onto 1
▁effetto 1
▁frase 1
▁determina 1
ppie 1
▁publicación 1
▁dém 1
▁États 1
▁arriba 1
aliser 1
▁factors 1
▁Arts 1
ünschen 1
izado 1
▁régime 1
▁martes 1
▁vorhanden 1
▁sorpresa 1
istet 1
▁rug 1
▁spiaggia 1
ipedia 1
▁bow 1
▁référ 1
▁gesamten 1
▁dieci 1
▁audience 1
▁Estas 1
▁prende 1
mio 1
verband 1
▁Studien 1
▁rischi 1
▁sourire 1
▁kilómetros 1
▁finished 1
▁scale 1
▁negocios 1
▁ait 1
▁54 1
raten 1
▁crédit 1
▁Cod 1
▁Geme 1
▁Project 1
adel 1
▁EM 1
▁nemmeno 1
▁Bade 1
Non 1
3% 1
▁suggest 1
▁burn 1
▁Temperatur 1
fortun 1
▁sustain 1
▁solar 1
▁2020 1
▁Prix 1
▁marcas 1
▁célè 1
onos 1
enschaften 1
▁hauteur 1
alisme 1
▁achieve 1
orías 1
▁izquierda 1
▁secure 1
▁einzigar 1
▁perfetto 1
▁58 1
▁alli 1
▁peinture 1
rating 1
▁Intro 1
▁legg 1
▁vege 1
▁diminu 1
▁halt 1
▁habrá 1
▁affrontare 1
▁Tutta 1
▁ihres 1
▁preval 1
▁actualidad 1
vet 1
▁mémoire 1
▁Pens 1
▁cars 1
▁switch 1
!” 1
renz 1
▁arts 1
▁relationships 1
▁Crist 1
▁Très 1
▁noto 1
▁Nachdem 1
guardo 1
ossen 1
▁Feli 1
▁relativa 1
▁prostit 1
pin 1
isent 1
beg 1
▁danni 1
▁risc 1
▁Escu 1
▁López 1
▁rispond 1
▁nächste 1
guez 1
▁advantage 1
uments 1
azz 1
▁películas 1
emas 1
▁Harry 1
▁posta 1
▁riserv 1
iego 1
▁passt 1
▁exerc 1
onné 1
▁sitios 1
▁cuarto 1
▁Laut 1
▁economy 1
▁richieste 1
▁Schon 1
entiss 1
amment 1
▁Venezia 1
▁hyper 1
blos 1
fice 1
▁recha 1
▁custo 1
Pre 1
▁2009, 1
estruct 1
▁casual 1
▁enco 1
▁morb 1
▁iniciativa 1
▁herman 1
▁inscrit 1
▁Künstler 1
▁operativo 1
▁arquite 1
▁registrazione 1
▁reducir 1
▁evidente 1
endet 1
▁Train 1
▁Ville 1
▁conve 1
▁celebrar 1
▁intervento 1
▁Lag 1
ANT 1
▁debo 1
oster 1
▁gare 1
▁constat 1
▁organizaciones 1
aktiv 1
▁Corpor 1
▁Verbrauch 1
▁hilft 1
▁requires 1
▁Sole 1
ctá 1
born 1
▁iOS 1
▁fuego 1
▁thousands 1
attform 1
▁Ingen 1
▁prestazioni 1
▁ottim 1
ustizia 1
▁institutions 1
Ber 1
▁attack 1
rd 1
▁terrible 1
▁annonces 1
▁veröffentlicht 1
▁designs 1
▁Nell 1
formance 1
▁recente 1
▁fémin 1
ains 1
▁indu 1
▁partenaires 1
uft 1
▁faible 1
▁entreten 1
▁calles 1
▁schwier 1
▁retrou 1
▁Falls 1
▁21. 1
▁carga 1
▁selected 1
▁anteriores 1
▁Grupo 1
brica 1
erazione 1
▁fallen 1
ttura 1
▁designer 1
▁superfici 1
rador 1
▁cuya 1
égie 1
ciano 1
▁ansch 1
▁adopt 1
rimer 1
formen 1
▁racconti 1
▁äuß 1
ech 1
▁knows 1
▁habitación 1
▁programm 1
▁cualquiera 1
▁brauchen 1
▁bleu 1
▁Meer 1
▁Interess 1
▁Ergebnisse 1
▁cibo 1
abo 1
▁130 1
avent 1
▁DJ 1
▁Moment 1
▁aziend 1
▁Rapp 1
apor 1
▁professionisti 1
▁maladie 1
▁generación 1
immagine 1
▁compare 1
▁Informations 1
ateau 1
occasione 1
▁genutzt 1
▁genießen 1
izeit 1
gewöhn 1
ivement 1
▁Verkehrs 1
▁ganas 1
hyd 1
▁Nick 1
ulin 1
▁übrig 1
anía 1
▁Ath 1
▁paes 1
▁billion 1
▁13, 1
▁combina 1
▁51 1
▁effettuare 1
▁Ihres 1
▁causes 1
▁Tradition 1
arono 1
▁devait 1
▁besondere 1
enfant 1
▁dates 1
chent 1
tively 1
▁erweit 1
▁elecciones 1
versicherung 1
icap 1
▁Grat 1
▁sets 1
▁Farb 1
▁jungen 1
▁unterwegs 1
▁extraordin 1
▁900 1
▁brain 1
▁wine 1
mpf 1
▁Gay 1
▁Bene 1
völker 1
▁indag 1
▁fällt 1
cour 1
uting 1
▁gagn 1
▁renov 1
uhl 1
▁presentato 1
merzen 1
▁descans 1
▁update 1
▁learned 1
▁enth 1
▁dessin 1
▁particolari 1
▁ospiti 1
▁aktuell 1
▁Mars 1
:: 1
▁maje 1
▁Analy 1
▁teniendo 1
▁tuttavia 1
▁Hoff 1
▁TO 1
rated 1
▁Sound 1
▁gesto 1
chau 1
▁domicile 1
▁Jam 1
▁chicas 1
▁calme 1
▁betroffen 1
▁Antwort 1
▁subir 1
igan 1
etzungen 1
▁vieux 1
▁Edition 1
▁Sozial 1
▁initial 1
▁concreto 1
▁Tipps 1
▁montant 1
▁teilweise 1
hafen 1
deck 1
usal 1
▁15, 1
▁secre 1
izing 1
▁Galaxy 1
▁alcohol 1
▁apport 1
▁visione 1
▁könnt 1
▁zones 1
quête 1
▁mala 1
▁verfügt 1
▁Tie 1
▁mantenere 1
▁Therap 1
ref 1
mittlung 1
▁comunale 1
werte 1
▁south 1
▁circun 1
▁llegado 1
▁francese 1
▁wouldn 1
▁fonctionnement 1
▁pian 1
▁passa 1
▁aspecto 1
tech 1
zustellen 1
▁flat 1
▁fish 1
▁conforme 1
▁pedir 1
lebnis 1
▁natür 1
sole 1
▁sangue 1
roy 1
▁cambia 1
DP 1
ücke 1
ags 1
▁ultimo 1
aso 1
▁xxx 1
▁Sper 1
zub 1
▁compéti 1
eling 1
abeth 1
▁aceite 1
▁différence 1
▁motiva 1
étude 1
▁lanci 1
▁avrà 1
▁conversation 1
pielt 1
▁loan 1
▁noved 1
▁convir 1
▁preguntas 1
▁forget 1
▁Karten 1
▁rural 1
▁manage 1
▁permane 1
▁Viet 1
▁2008, 1
äden 1
▁ryth 1
▁pig 1
▁drug 1
▁messaggio 1
▁défense 1
▁Chinese 1
▁Western 1
▁enseign 1
▁Mike 1
▁Urs 1
▁UV 1
▁recevoir 1
istono 1
▁hur 1
▁shape 1
▁majorité 1
▁advanced 1
teras 1
étique 1
baum 1
▁soluciones 1
▁dépos 1
▁Kim 1
▁tapp 1
▁acteurs 1
▁carattere 1
▁Jorge 1
▁motivi 1
▁Herbst 1
▁Belle 1
▁hätten 1
order 1
▁scrivere 1
▁chica 1
▁gesamte 1
rap 1
▁Traum 1
▁Sports 1
▁entscheiden 1
Inter 1
▁frauen 1
flu 1
▁mismas 1
▁remain 1
▁Noti 1
▁réussi 1
▁Italy 1
▁nö 1
▁jeudi 1
▁expression 1
ilder 1
initi 1
▁laboratorio 1
This 1
.11. 1
▁properties 1
▁deliber 1
▁conocimientos 1
▁occident 1
▁1998 1
▁Atl 1
itando 1
▁Lager 1
iena 1
▁plantas 1
▁mq 1
▁guess 1
▁reputa 1
▁handle 1
▁Bang 1
▁dolce 1
▁Bücher 1
▁risques 1
▁partito 1
▁191 1
▁mercredi 1
intérêt 1
ensioni 1
▁anderer 1
wesen 1
▁amar 1
▁memor 1
▁ER 1
▁aparece 1
timate 1
till 1
▁durchaus 1
isola 1
▁descend 1
Che 1
▁72 1
▁FOR 1
▁Aufgabe 1
▁classique 1
▁dédi 1
rales 1
▁Gene 1
▁dicen 1
▁Head 1
▁mascul 1
▁péd 1
▁dure 1
▁aprob 1
▁shared 1
issions 1
▁kid 1
▁sostegno 1
IST 1
...). 1
▁trabajando 1
▁(4) 1
lets 1
▁exigen 1
▁thus 1
▁gekommen 1
ufs 1
rien 1
▁Audio 1
tières 1
▁tratt 1
▁locations 1
üste 1
▁dose 1
application 1
▁foc 1
érés 1
fried 1
cover 1
▁révé 1
▁textes 1
▁analisi 1
administra 1
▁challenges 1
▁habilidad 1
▁croissance 1
▁situaciones 1
plus 1
▁enable 1
▁Arbeiten 1
▁context 1
▁oggetti 1
▁whatever 1
stances 1
▁dob 1
▁vacaciones 1
irie 1
▁formes 1
▁cammin 1
▁ferm 1
▁naturel 1
versch 1
▁profil 1
▁intereses 1
▁mauva 1
▁organizations 1
▁(7 1
inse 1
▁enthält 1
gious 1
agent 1
▁placed 1
▁matur 1
▁Brasil 1
▁lejos 1
▁personaje 1
▁Laura 1
▁garant 1
▁scont 1
▁Lyon 1
▁courage 1
▁darin 1
▁BMW 1
▁sad 1
etzte 1
▁ottimo 1
▁affili 1
▁offrire 1
▁trasforma 1
agegen 1
▁aerop 1
▁ultimate 1
▁sah 1
▁infine 1
▁ragazzo 1
irittura 1
▁compétences 1
▁án 1
▁familiares 1
▁proposte 1
▁Princip 1
▁DES 1
ährung 1
▁$1 1
▁approxim 1
takt 1
▁Té 1
▁justo 1
▁Latina 1
▁primeras 1
itura 1
unted 1
ervice 1
▁fortuna 1
HS 1
▁developing 1
achat 1
▁Leider 1
mg 1
▁famous 1
▁Fernando 1
▁Gespräch 1
▁Germany 1
▁usw 1
▁agres 1
licazione 1
▁Warum 1
▁cinéma 1
unternehmen 1
FR 1
▁regelmäßig 1
anned 1
▁Commissione 1
▁complètement 1
weder 1
▁mentioned 1
▁CAR 1
▁03 1
▁endroit 1
▁Jul 1
▁draw 1
▁contrô 1
▁google 1
▁manifestazione 1
▁preis 1
metro 1
-9 1
▁explica 1
▁fréqu 1
▁Effe 1
Adresse 1
▁utilizzo 1
▁drop 1
naires 1
▁sindaco 1
▁holiday 1
▁profesor 1
▁zust 1
▁électrique 1
GA 1
▁anglais 1
▁commencé 1
Di 1
▁waiting 1
.1. 1
annung 1
izaje 1
▁appassion 1
▁Haw 1
▁envoy 1
▁flexible 1
▁édition 1
▁Vielleicht 1
▁). 1
ursday 1
▁purs 1
▁Desarrollo 1
▁allgeme 1
▁automatisch 1
▁partecipare 1
▁disciplina 1
ologici 1
Book 1
▁dott 1
▁structures 1
▁Doppel 1
▁Rio 1
accesso 1
▁sozi 1
▁PL 1
▁mittlerweile 1
▁mantenimiento 1
▁Bab 1
avez 1
▁quarter 1
▁raisons 1
▁dois 1
vollen 1
tivement 1
▁lediglich 1
mond 1
▁EC 1
▁solchen 1
▁organismo 1
▁sprechen 1
▁effets 1
▁Donna 1
▁feste 1
▁mínimo 1
▁Sony 1
▁privato 1
BO 1
▁hardware 1
▁Kong 1
▁Coach 1
▁Gesundheit 1
öster 1
▁rica 1
▁bientôt 1
▁pull 1
▁manchmal 1
▁(8 1
▁Grü 1
posto 1
▁valeurs 1
▁außerdem 1
-200 1
losen 1
▁Zeitpunkt 1
▁estrategia 1
▁dia 1
▁domicilio 1
▁passed 1
▁sympath 1
crip 1
▁beneficio 1
▁Anspruch 1
▁partenza 1
▁cartes 1
elor 1
▁guad 1
▁?? 1
ieuse 1
▁conness 1
▁Wissen 1
▁étudiants 1
▁finali 1
▁ISO 1
▁Modern 1
bay 1
▁travaille 1
incontro 1
krie 1
▁vídeo 1
▁ziehen 1
▁reference 1
▁esperienze 1
▁conferma 1
▁gebracht 1
▁Rim 1
▁réel 1
▁villes 1
▁2: 1
▁lieber 1
HA 1
rados 1
▁piezas 1
▁medicina 1
▁Award 1
▁consommation 1
▁] 1
mund 1
▁prochaine 1
iterrane 1
▁Sonder 1
▁Development 1
▁unica 1
▁payer 1
cimientos 1
▁Hintergrund 1
Ein 1
▁versucht 1
▁vehículos 1
▁Sohn 1
erten 1
▁approfond 1
▁;) 1
▁tercera 1
▁paralle 1
folio 1
▁Women 1
▁beauté 1
▁Pare 1
▁voglio 1
▁Roll 1
▁Categ 1
▁Tues 1
▁Lorsque 1
▁neighbor 1
▁foreign 1
▁Its 1
▁ésta 1
▁sangu 1
valuation 1
▁tratar 1
▁dennoch 1
ASS 1
▁blind 1
werke 1
▁voluto 1
At 1
▁gamma 1
▁Rag 1
▁trasporto 1
pool 1
environnement 1
▁Cast 1
▁flam 1
▁publics 1
▁régulièrement 1
▁cercando 1
▁protest 1
▁PD 1
▁otherwise 1
64 1
take 1
▁lag 1
ordnet 1
weet 1
iggio 1
▁croire 1
▁possède 1
▁Bian 1
▁conference 1
▁abog 1
ánico 1
▁Nar 1
▁Interior 1
▁verantwort 1
▁corn 1
▁Decreto 1
▁justicia 1
▁zuvor 1
▁gewinnen 1
▁Natale 1
▁limp 1
zwe 1
mans 1
lern 1
▁alguno 1
▁cabinet 1
▁compter 1
tiamo 1
rican 1
zier 1
lida 1
▁CEO 1
▁advers 1
▁windows 1
bling 1
▁peor 1
▁voire 1
▁Accueil 1
▁lose 1
▁Bund 1
▁desper 1
▁Vorauss 1
▁aba 1
▁éco 1
▁becomes 1
▁Comité 1
▁möglichst 1
▁torna 1
▁ejemp 1
▁Tat 1
▁animaux 1
▁esperar 1
▁dedicated 1
▁erlau 1
reise 1
▁requiere 1
▁démocra 1
▁Oct 1
▁hija 1
▁leggi 1
▁Medio 1
oración 1
▁Iran 1
▁instalación 1
▁directo 1
▁listed 1
▁sauf 1
▁aspect 1
▁SEO 1
▁Toutes 1
▁utilizzati 1
áis 1
fié 1
hs 1
▁Guerra 1
rages 1
merksam 1
▁ocup 1
▁2- 1
▁storie 1
▁Petit 1
▁tengan 1
▁viens 1
▁CE 1
wechsel 1
▁Feld 1
▁pazienti 1
▁Fond 1
1] 1
gura 1
▁locaux 1
▁Step 1
▁öffentlichen 1
▁trem 1
ersey 1
▁ambas 1
resser 1
▁crise 1
▁Vend 1
▁suf 1
▁assure 1
▁vecinos 1
▁GB 1
link 1
▁misure 1
▁movies 1
▁entrare 1
alisierung 1
▁industrie 1
iern 1
▁Büro 1
▁occu 1
▁dificultad 1
▁ido 1
▁awesome 1
ablement 1
▁Geschmack 1
reras 1
titudes 1
▁20% 1
uloir 1
▁intellect 1
adore 1
▁conm 1
▁créé 1
edu 1
▁obwohl 1
lieren 1
▁dudas 1
frieden 1
▁täglich 1
▁courant 1
▁hôtel 1
▁Mercedes 1
▁réalisation 1
öse 1
orso 1
▁View 1
▁sensible 1
▁clair 1
▁giocare 1
▁célibata 1
▁herramienta 1
ologiques 1
anlagen 1
▁Click 1
umo 1
▁68 1
▁esso 1
▁silen 1
zeichnung 1
?, 1
heureusement 1
mittelt 1
nungen 1
▁Institu 1
punkte 1
▁Premium 1
▁indire 1
erto 1
▁sabemos 1
▁offiz 1
▁dominio 1
réal 1
▁médias 1
OV 1
▁honest 1
▁Veranstaltung 1
▁dejó 1
▁centri 1
▁engagement 1
▁mejora 1
▁Plat 1
▁Lust 1
▁nat 1
▁forcé 1
▁miliardi 1
▁Porque 1
▁Zusammenhang 1
▁direttore 1
▁écri 1
▁selezione 1
ämt 1
▁Cross 1
▁vivienda 1
pil 1
edì 1
Associazione 1
▁nato 1
▁scul 1
▁planes 1
▁plain 1
èce 1
ographie 1
▁icon 1
autore 1
zahlung 1
estin 1
yage 1
île 1
▁Acco 1
▁suppos 1
▁assistance 1
▁independent 1
▁avvic 1
▁condizione 1
▁Anwendung 1
ulte 1
▁biggest 1
verständlich 1
▁Spar 1
▁welcome 1
▁déco 1
▁Continua 1
▁profund 1
▁performed 1
chsel 1
▁quería 1
bien 1
Fe 1
▁défaut 1
▁passi 1
▁compagnia 1
▁dru 1
▁Unión 1
tadores 1
▁últimas 1
sts 1
▁aumenta 1
▁Padre 1
▁continued 1
▁operation 1
info 1
klusive 1
▁Zap 1
Amer 1
▁SV 1
▁especiales 1
▁map 1
▁litt 1
▁cham 1
▁Valley 1
▁maestro 1
▁Progra 1
holz 1
▁PV 1
▁crow 1
ualità 1
▁Bezug 1
▁bug 1
▁profile 1
▁Domin 1
▁usage 1
▁kleiner 1
▁OP 1
▁libera 1
▁zer 1
▁cance 1
▁absolutely 1
amble 1
▁découverte 1
▁north 1
▁Stunde 1
▁gather 1
igungs 1
rian 1
▁testi 1
▁decisiones 1
▁mardi 1
▁retail 1
▁mole 1
kar 1
▁normas 1
▁objectif 1
▁dónde 1
▁Rég 1
▁behavior 1
▁basse 1
▁pensando 1
▁calls 1
▁soweit 1
▁publicado 1
▁Mam 1
▁consegna 1
▁residen 1
▁persönlich 1
▁Porto 1
▁fête 1
▁tradicional 1
gazione 1
gegeben 1
▁simples 1
▁équipes 1
îte 1
▁affin 1
▁Have 1
accueil 1
▁metod 1
▁nachdem 1
▁muß 1
▁dispu 1
▁evening 1
quette 1
▁waste 1
▁aporta 1
▁certaine 1
▁éto 1
▁kick 1
▁Theater 1
isted 1
aturas 1
▁provare 1
▁popolazione 1
cini 1
▁steel 1
▁erwartet 1
▁complesso 1
▁Info 1
legenheit 1
▁sesión 1
wan 1
▁racon 1
▁192 1
▁toll 1
▁competencia 1
▁imprim 1
▁tâ 1
▁applied 1
lines 1
▁egal 1
▁puertas 1
cend 1
▁Vertrags 1
▁falls 1
quo 1
▁fear 1
▁Another 1
▁operations 1
▁Cho 1
▁chiede 1
▁termes 1
▁usando 1
▁bisschen 1
▁entusias 1
▁sueño 1
▁precisamente 1
▁descargar 1
lapp 1
text 1
▁recog 1
ped 1
teles 1
td 1
▁Crea 1
▁ocho 1
▁Zusch 1
▁22. 1
▁principi 1
▁Camera 1
▁académ 1
▁tritur 1
Hz 1
▁transm 1
run 1
emon 1
▁hang 1
▁PH 1
▁noticias 1
▁panorama 1
▁Steve 1
find 1
itarios 1
ciar 1
▁almacen 1
▁remove 1
▁Tags 1
▁stars 1
▁cento 1
gato 1
▁responsabilité 1
▁negozi 1
▁quit 1
▁upload 1
▁ventas 1
▁Schluss 1
▁Schlag 1
▁tipi 1
▁restitu 1
mites 1
wich 1
gehend 1
alizzazione 1
▁Luca 1
▁documenti 1
ctic 1
▁entwickeln 1
uty 1
vación 1
▁liens 1
bliche 1
▁casas 1
▁showed 1
▁bul 1
▁Pav 1
pete 1
▁Pfer 1
▁fonds 1
ichern 1
▁prepared 1
▁lament 1
▁Vereins 1
olé 1
ngel 1
▁Hob 1
▁quell 1
▁Tick 1
▁cifra 1
▁limiti 1
▁Wär 1
▁umfass 1
▁denuncia 1
▁pasos 1
▁wählen 1
▁Sachen 1
▁Second 1
▁Marina 1
▁manner 1
▁Made 1
ignon 1
▁operating 1
▁keeping 1
▁finir 1
▁gemäß 1
▁expertise 1
▁synth 1
▁hervorrag 1
▁aquella 1
hend 1
creen 1
fähigkeit 1
▁jazz 1
ilde 1
andes 1
▁darum 1
▁existencia 1
▁posibilidades 1
▁potuto 1
▁Dirección 1
▁entièrement 1
▁Sü 1
▁copia 1
▁pression 1
ítulos 1
▁ski 1
▁vict 1
xes 1
▁tree 1
▁Fut 1
▁Foundation 1
correre 1
▁circon 1
▁eingesetzt 1
▁isra 1
fferta 1
utile 1
▁addirittura 1
oraus 1
▁montagne 1
▁accompl 1
▁-> 1
▁Ciao 1
▁Nike 1
▁dibuj 1
▁Commer 1
▁maravill 1
▁smooth 1
▁vincul 1
▁muo 1
ghan 1
icia 1
▁beni 1
positions 1
▁ristrutt 1
▁connected 1
▁Greg 1
▁tedes 1
▁triun 1
ergia 1
▁nécessaires 1
▁tox 1
▁écla 1
▁workers 1
▁Thursday 1
▁évo 1
▁Whether 1
▁explore 1
▁communities 1
▁voud 1
▁regres 1
issante 1
▁joy 1
▁chiesa 1
▁jugador 1
lebt 1
▁Tok 1
agi 1
▁Burg 1
▁Hunde 1
▁piani 1
▁necesit 1
▁monte 1
▁wenige 1
▁Perú 1
athan 1
▁snow 1
▁Technology 1
▁pierre 1
▁SM 1
▁ricordo 1
▁apprend 1
ively 1
▁facilities 1
unico 1
bación 1
▁toward 1
▁maisons 1
▁trimestre 1
▁Place 1
▁database 1
▁presupuesto 1
▁vehículo 1
▁fiel 1
▁tandis 1
▁implica 1
▁compañeros 1
▁Jard 1
▁Asi 1
▁hero 1
▁vere 1
▁hicieron 1
abend 1
▁portes 1
▁Moi 1
▁Vall 1
▁barrio 1
▁touche 1
▁boca 1
▁Anforderungen 1
▁alcanzar 1
▁appos 1
▁Verd 1
▁frequent 1
alte 1
▁machte 1
▁Zeiten 1
▁plage 1
iation 1
▁Hollywood 1
▁programmes 1
▁garantis 1
▁ice 1
▁prezi 1
ponde 1
telle 1
▁eight 1
ettiva 1
▁Kann 1
▁Gottes 1
▁remb 1
▁plenty 1
▁Asimismo 1
▁Tätigkeit 1
▁barri 1
▁llu 1
▁bewer 1
▁lectura 1
▁NY 1
bat 1
▁apps 1
▁Zü 1
ussian 1
▁spectacle 1
▁Activ 1
cento 1
▁regime 1
▁entsprechend 1
▁cama 1
▁falle 1
▁erleben 1
▁Maßnahmen 1
▁Hat 1
▁Plas 1
▁Klasse 1
▁respeto 1
imal 1
▁Ruhe 1
▁capture 1
▁ampio 1
▁perte 1
▁Wochenende 1
▁Tuesday 1
chtl 1
ickt 1
▁usato 1
▁fuerzas 1
▁Fair 1
▁penet 1
isition 1
'' 1
▁piedra 1
tisme 1
▁echt 1
▁GPS 1
▁Heil 1
nesday 1
▁medium 1
▁genial 1
▁Bonus 1
▁inizio 1
▁ringra 1
américa 1
▁consecuencia 1
gger 1
▁pomeriggio 1
mati 1
ßt 1
▁Take 1
schl 1
▁Vel 1
▁Tribunal 1
rita 1
rore 1
▁Chef 1
▁zufrieden 1
▁obstante 1
▁59 1
ilding 1
▁versuchen 1
lichkeiten 1
etooth 1
illy 1
▁arrang 1
▁female 1
unkten 1
▁contributo 1
▁dà 1
▁simult 1
cioso 1
▁Zwei 1
État 1
▁Quer 1
lave 1
▁Perfe 1
▁User 1
▁confronto 1
▁relativo 1
▁Dipl 1
▁física 1
▁theory 1
▁sentire 1
▁Bin 1
▁permanent 1
ORE 1
▁aumentare 1
▁wundersch 1
▁Simon 1
▁Alexander 1
▁Jeder 1
▁Kol 1
▁afirm 1
alizados 1
▁befinden 1
▁piens 1
▁hospit 1
▁watching 1
▁intri 1
▁vittoria 1
hafte 1
▁relo 1
▁osc 1
▁ripos 1
▁Sicilia 1
▁bought 1
▁meravigli 1
▁colors 1
▁ox 1
▁aroma 1
▁spons 1
30, 1
▁77 1
▁Mut 1
accordo 1
▁dimen 1
▁consapevole 1
▁Han 1
▁teacher 1
▁Arzt 1
prob 1
associa 1
zehn 1
▁forze 1
▁administration 1
▁caused 1
yeur 1
▁helpful 1
Cl 1
▁Magn 1
▁líneas 1
▁Appar 1
▁jung 1
aa 1
▁Ado 1
vale 1
▁linee 1
▁roll 1
moins 1
▁manuten 1
BM 1
web 1
ulations 1
▁musici 1
▁cuentas 1
▁eau 1
▁Ersatz 1
▁chiedere 1
▁actor 1
ouverture 1
▁représente 1
▁feli 1
takte 1
▁esperti 1
érable 1
portes 1
▁Matte 1
▁lumin 1
▁buying 1
êtres 1
▁italien 1
▁Industri 1
▁suffis 1
▁Parlamento 1
▁numerous 1
▁350 1
▁baj 1
▁obiettivi 1
▁exercise 1
▁Präsident 1
otten 1
▁happens 1
▁Plaza 1
▁chiave 1
▁Support 1
▁Earth 1
▁sample 1
▁Kore 1
arne 1
glau 1
▁plants 1
▁benessere 1
▁sach 1
estate 1
▁Browser 1
▁precedenti 1
fting 1
▁vogliono 1
▁Arg 1
▁foro 1
▁chocolate 1
▁schwar 1
▁efica 1
cionar 1
▁posibles 1
▁processing 1
▁pis 1
ication 1
▁erneut 1
▁kos 1
moine 1
▁señor 1
▁denke 1
falt 1
▁protet 1
illance 1
▁azul 1
▁professionals 1
▁demandé 1
▁cantante 1
commun 1
▁circuit 1
▁vostri 1
▁optimal 1
▁Id 1
êté 1
▁debut 1
▁empie 1
▁tej 1
plätze 1
▁indirizzo 1
yen 1
▁Konz 1
▁fuentes 1
atom 1
heimer 1
mig 1
▁malattia 1
▁Kredit 1
issime 1
▁chauff 1
2% 1
▁fant 1
itate 1
▁avance 1
CP 1
▁Retro 1
▁colon 1
▁appréci 1
▁piena 1
▁rendimiento 1
▁Palazzo 1
▁complément 1
isla 1
▁davantage 1
?! 1
prün 1
▁aware 1
▁serio 1
▁Untersuch 1
water 1
▁essendo 1
gias 1
prung 1
▁increí 1
▁überras 1
▁podrían 1
ggia 1
mination 1
3; 1
▁Karl 1
critti 1
tausch 1
▁Arte 1
▁novela 1
▁sacar 1
▁wenigen 1
▁Series 1
opération 1
▁sectores 1
chement 1
▁Insp 1
▁singolo 1
▁Sn 1
moni 1
▁Sieg 1
▁pair 1
▁présentation 1
▁devoir 1
▁preuve 1
▁vintage 1
class 1
▁naissance 1
▁practices 1
▁Caf 1
olato 1
▁Norte 1
fache 1
etri 1
▁Avant 1
management 1
▁segno 1
▁raccont 1
▁quedó 1
▁Entra 1
Pa 1
▁embara 1
▁nap 1
▁stesse 1
▁Contra 1
▁tornare 1
▁hell 1
▁Questi 1
▁chic 1
▁aperta 1
▁Macht 1
ficación 1
eless 1
olution 1
▁marques 1
▁individuelle 1
▁Ohne 1
▁cumple 1
▁URL 1
▁testing 1
▁dul 1
▁Fitness 1
▁escenario 1
hause 1
▁aspetto 1
▁Leip 1
▁aquellas 1
quelles 1
êtements 1
▁entrambi 1
▁estu 1
▁Italien 1
▁sister 1
▁introd 1
▁agreg 1
▁complète 1
▁Daher 1
hésitez 1
▁interessi 1
uben 1
▁20, 1
▁viss 1
▁Holl 1
▁Señor 1
illage 1
▁riguardo 1
▁soin 1
▁2011. 1
▁pouvons 1
burger 1
▁popolo 1
ástico 1
▁Hochzeit 1
▁Sea 1
▁fiducia 1
▁Wa 1
▁parche 1
wen 1
▁électron 1
▁diet 1
▁Rena 1
▁Zwischen 1
▁Nicolas 1
▁pouss 1
▁recy 1
▁Scott 1
▁manc 1
▁Anschluss 1
▁figur 1
▁Immer 1
▁joint 1
▁componenti 1
▁formula 1
▁amico 1
▁accogli 1
eper 1
▁utilisateurs 1
▁primavera 1
▁satell 1
abelle 1
▁(“ 1
▁Patrick 1
mobile 1
▁volunt 1
▁Norm 1
▁gestalten 1
visions 1
kurs 1
▁Administración 1
▁53 1
▁surg 1
▁lasciare 1
▁sounds 1
▁Viv 1
▁showing 1
▁hé 1
▁véhicule 1
▁songs 1
▁iniziative 1
▁Palermo 1
hom 1
▁becoming 1
ayo 1
▁Family 1
▁spesa 1
▁equilibrio 1
▁désir 1
▁performances 1
▁Ty 1
▁unidades 1
▁resolución 1
▁Lind 1
▁cuir 1
dia 1
▁entidades 1
▁propias 1
hou 1
ierungen 1
▁Tari 1
▁entstehen 1
▁Lav 1
▁gastronom 1
▁walking 1
▁dimentic 1
achst 1
▁institution 1
gten 1
èche 1
▁paragra 1
▁ruo 1
▁corner 1
▁appears 1
▁Trainer 1
-12 1
▁menores 1
inves 1
▁Klima 1
▁notizie 1
vaient 1
▁torneo 1
▁Hit 1
énagement 1
▁pp 1
▁eth 1
▁fertig 1
▁metro 1
▁participantes 1
▁besonderen 1
▁Block 1
▁llegada 1
▁plaza 1
▁tableau 1
▁rendu 1
eps 1
▁aloj 1
▁Regen 1
▁clearly 1
▁soggetto 1
▁pobre 1
▁lettera 1
appy 1
▁méthode 1
▁dobbiamo 1
▁exposición 1
gründet 1
▁presence 1
elten 1
▁ermöglichen 1
bildungs 1
▁thoughts 1
▁Stuttgart 1
tru 1
▁hinzu 1
bruch 1
▁afferma 1
bility 1
▁Einsch 1
▁cleaning 1
PN 1
timos 1
▁jefe 1
▁Haar 1
▁devenu 1
gimento 1
▁tenue 1
▁Fundación 1
cero 1
▁tenir 1
▁hei 1
▁qualita 1
zene 1
▁Verg 1
sk 1
▁serr 1
▁Marken 1
icoli 1
▁Fon 1
▁dover 1
CT 1
with 1
▁Torre 1
▁máxima 1
▁documentos 1
▁Kor 1
teln 1
▁CV 1
Cómo 1
othek 1
DO 1
▁Klass 1
▁prosegu 1
▁erster 1
▁pequeñas 1
▁artisti 1
rein 1
▁Cosa 1
▁TS 1
▁Individ 1
▁bestimmten 1
▁Oscar 1
▁attesa 1
▁ingresso 1
▁recette 1
▁bébé 1
nt 1
▁Verfahren 1
▁sección 1
▁gratuitement 1
bek 1
▁dipu 1
▁task 1
▁SER 1
▁generar 1
▁theme 1
▁amour 1
▁systèmes 1
▁credito 1
▁Darüber 1
chir 1
▁lovely 1
▁Wohl 1
▁mila 1
gruppen 1
gesehen 1
▁porc 1
▁contacter 1
denza 1
tidos 1
▁combination 1
▁Viagra 1
▁married 1
lösung 1
??? 1
▁king 1
▁Stoff 1
▁Professor 1
▁essayer 1
BL 1
▁wider 1
BN 1
▁zo 1
▁unabhäng 1
▁Jones 1
gery 1
▁GM 1
▁Né 1
▁Lig 1
▁victoria 1
▁vedi 1
lande 1
▁bestellen 1
▁Kostenlos 1
itete 1
▁difesa 1
▁asisti 1
▁remains 1
▁kamen 1
emato 1
▁tono 1
▁Teile 1
▁ancien 1
▁temi 1
▁Presse 1
▁dormir 1
inson 1
▁lutte 1
▁16, 1
/12 1
▁Posi 1
unehmen 1
▁Lui 1
ANO 1
entin 1
▁trov 1
▁disfru 1
▁wichtigsten 1
39; 1
iell 1
endung 1
ound 1
▁libres 1
oston 1
▁sérieux 1
▁esclusivamente 1
ígen 1
licken 1
▁identidad 1
▁Society 1
isierung 1
▁gle 1
entar 1
▁Freizeit 1
accomp 1
enntnis 1
▁Ai 1
▁requer 1
▁competenze 1
600 1
▁digo 1
pole 1
▁covers 1
▁inferiore 1
▁messa 1
aked 1
▁button 1
▁prácticas 1
▁majority 1
▁Ring 1
▁technologie 1
▁Hous 1
▁contempora 1
Press 1
▁umano 1
▁signe 1
/4 1
▁invas 1
...” 1
▁dimension 1
▁notwendig 1
▁hacía 1
▁Policía 1
▁competition 1
ierter 1
▁Verlag 1
▁ändern 1
▁animals 1
▁thri 1
▁pensato 1
▁Arri 1
▁diversa 1
▁island 1
▁gratuiti 1
▁iniziato 1
anzas 1
▁mamma 1
▁tecnici 1
▁cámara 1
▁operazioni 1
mented 1
▁spos 1
</ 1
▁Ere 1
▁Bibli 1
▁Stil 1
▁Comer 1
▁continues 1
▁lettre 1
▁muta 1
▁personnal 1
▁Next 1
derungen 1
▁éch 1
▁volontà 1
▁poiché 1
▁strade 1
▁felic 1
▁Puede 1
▁docente 1
▁levant 1
▁pantal 1
Su 1
edale 1
▁erkl 1
laut 1
▁decisione 1
▁estrem 1
▁capacity 1
cara 1
▁folgende 1
▁racconta 1
▁consenso 1
ulant 1
▁claims 1
▁größten 1
▁lignes 1
sero 1
venida 1
▁Germania 1
▁propriété 1
züglich 1
▁Loren 1
ugu 1
▁Vas 1
▁múl 1
▁Recher 1
▁laser 1
▁Servicio 1
▁revenir 1
▁Wednesday 1
coute 1
69 1
▁especie 1
verläss 1
▁Jur 1
wed 1
▁Tochter 1
ogene 1
▁scal 1
▁wirtschaft 1
huile 1
▁Bedürf 1
▁fren 1
stände 1
▁changing 1
fran 1
▁artes 1
ablemente 1
▁épa 1
▁Schweizer 1
▁proud 1
▁viola 1
▁adresse 1
▁opened 1
▁Wirkung 1
▁meilleures 1
▁mehreren 1
▁genu 1
▁Continue 1
▁except 1
▁critique 1
▁infrastruct 1
▁positions 1
▁chiff 1
▁(9 1
▁Nam 1
▁vaut 1
▁Vog 1
▁habría 1
rische 1
▁perce 1
FL 1
▁richi 1
▁benötigt 1
material 1
▁operaciones 1
▁Sonne 1
ashion 1
▁objets 1
ährlich 1
▁sencillo 1
▁hará 1
▁encourage 1
▁processes 1
▁anch 1
▁Wettbewer 1
▁massive 1
▁package 1
mera 1
▁entier 1
aglio 1
▁genannt 1
▁Veränder 1
▁llen 1
ída 1
▁profilo 1
▁Profes 1
▁Hart 1
▁recre 1
cuzione 1
▁tief 1
▁wissenschaft 1
▁establish 1
▁Lady 1
alisé 1
▁pericol 1
pic 1
▁Piazza 1
▁piatto 1
▁verloren 1
apa 1
acquisto 1
▁Victoria 1
ologiche 1
▁88 1
▁olio 1
▁crime 1
▁generalmente 1
▁frère 1
▁guter 1
▁belleza 1
▁colección 1
▁ogn 1
deaux 1
ift 1
▁cue 1
▁basket 1
▁operatori 1
▁appunto 1
▁faits 1
▁Vertre 1
▁calendario 1
usi 1
flächen 1
▁Polí 1
▁Poss 1
▁chiesto 1
▁supone 1
▁multim 1
▁drag 1
▁agreement 1
▁prolong 1
▁tiendas 1
▁masse 1
▁Station 1
▁pedido 1
▁comprende 1
▁2007, 1
▁permiten 1
▁operación 1
▁Cit 1
▁ausreich 1
Union 1
▁oral 1
▁affaires 1
▁fantastic 1
▁roule 1
▁mast 1
enntnisse 1
▁réserve 1
▁morce 1
▁simb 1
▁Ambiente 1
▁coverage 1
▁67 1
▁Vort 1
▁Linux 1
oter 1
adies 1
gare 1
ercice 1
▁Nie 1
▁cán 1
▁détails 1
▁assume 1
▁fung 1
▁potente 1
kor 1
äger 1
▁Fast 1
▁slot 1
▁secu 1
rese 1
▁humana 1
▁marc 1
▁venerdì 1
▁Tuttavia 1
▁dagegen 1
▁Government 1
▁realizó 1
poses 1
▁Charl 1
▁Insel 1
▁verranno 1
íodo 1
▁wand 1
▁Staat 1
▁engineering 1
ubehör 1
▁Mix 1
▁disapp 1
▁pérdida 1
adern 1
▁semplici 1
▁tient 1
▁concorso 1
▁Normal 1
tito 1
gada 1
▁probar 1
▁rappel 1
üren 1
▁parlament 1
zin 1
▁gespeichert 1
▁abajo 1
▁experiencias 1
agas 1
▁cogni 1
ery 1
▁comerciales 1
▁absor 1
▁numeri 1
▁Diam 1
▁Deine 1
▁romanti 1
österreich 1
▁ruta 1
▁presa 1
▁About 1
kg 1
▁controvers 1
▁Way 1
▁essi 1
▁Pant 1
doc 1
▁conced 1
▁simile 1
flü 1
xel 1
▁productiv 1
menes 1
▁Position 1
▁identify 1
▁agency 1
▁prevista 1
▁Ki 1
▁Gil 1
▁masa 1
▁DA 1
cionado 1
wendungen 1
▁suele 1
▁Pietro 1
▁Vertrag 1
▁eco 1
▁Fisc 1
▁étude 1
tegies 1
▁heureux 1
▁18, 1
timi 1
▁mecan 1
ktoren 1
▁én 1
▁Banco 1
▁inspiration 1
PO 1
▁lontano 1
holt 1
▁enfermedades 1
anzeigen 1
EX 1
bald 1
▁Guide 1
▁1° 1
▁irgendwie 1
▁transition 1
▁1960 1
▁rain 1
▁Scuola 1
alization 1
▁biglie 1
▁69 1
▁Besonders 1
▁motore 1
äck 1
▁Heiz 1
▁Geräte 1
▁angem 1
rants 1
▁Dip 1
▁entgegen 1
▁Ministero 1
▁creazione 1
▁Their 1
▁froid 1
▁Gerät 1
▁restri 1
barer 1
▁syndic 1
mitir 1
▁señaló 1
merz 1
▁brief 1
▁Pir 1
▁Segu 1
▁abierto 1
▁anony 1
ód 1
ENTE 1
PL 1
▁Justicia 1
▁Noch 1
▁adding 1
letta 1
bieten 1
▁riport 1
▁assistenza 1
▁correspondiente 1
▁céré 1
▁tables 1
▁Quar 1
▁Morgen 1
▁gestire 1
▁Consult 1
▁menti 1
▁Leer 1
▁celebr 1
▁culo 1
orar 1
▁utilizzando 1
▁shel 1
▁Night 1
▁veo 1
▁moitié 1
▁veulent 1
▁blogs 1
▁sodass 1
hrt 1
▁langsam 1
▁Excel 1
▁dance 1
▁femminile 1
▁tablet 1
▁verlassen 1
▁generation 1
aka 1
aliment 1
▁desempe 1
▁leaving 1
▁nata 1
▁bequem 1
arde 1
epoca 1
▁analog 1
▁permit 1
▁Vietnam 1
▁Eigen 1
▁artists 1
cierto 1
▁pne 1
hôtel 1
▁mite 1
▁abges 1
▁188 1
cripción 1
olino 1
▁tenu 1
issait 1
▁wirkt 1
▁pasó 1
▁Funktionen 1
ified 1
emia 1
▁nouvel 1
▁deporte 1
tida 1
▁Photos 1
front 1
▁certainement 1
▁Donners 1
▁mélange 1
▁privil 1
▁excited 1
▁Tanz 1
▁willing 1
▁marriage 1
▁17, 1
▁1980 1
▁supports 1
▁curi 1
▁mécan 1
associazione 1
▁vég 1
▁isla 1
▁Attra 1
▁provider 1
▁Domen 1
.10 1
▁feliz 1
▁aprendizaje 1
▁apprendre 1
▁ther 1
▁abund 1
▁tradizionale 1
▁Fällen 1
▁protéger 1
▁Einen 1
▁hören 1
▁allait 1
▁terza 1
800 1
▁reb 1
▁confront 1
▁informieren 1
standing 1
▁corporate 1
▁Bew 1
▁latte 1
▁selling 1
▁petro 1
dale 1
▁Policy 1
▁XIX 1
▁Encu 1
▁genauso 1
fig 1
changes 1
▁Lap 1
▁günstig 1
▁gui 1
▁einzige 1
▁poker 1
▁incluyendo 1
▁relazioni 1
▁verpflich 1
▁Williams 1
kräfte 1
▁accid 1
▁Hein 1
pieler 1
▁zuletzt 1
▁transforma 1
▁Ama 1
▁simpli 1
▁localidad 1
▁Alltag 1
▁Handy 1
agg 1
braucht 1
▁enjoyed 1
▁incen 1
istenti 1
▁carrière 1
▁langen 1
▁umfang 1
▁elección 1
uyen 1
▁establecer 1
▁glück 1
▁strugg 1
▁script 1
ulous 1
urm 1
▁portion 1
▁invite 1
▁bouche 1
▁Smartphone 1
▁resolver 1
Mit 1
▁Wass 1
▁runs 1
▁smaller 1
▁previously 1
▁Eric 1
▁Kern 1
▁Meet 1
inv 1
▁Statis 1
wirkungen 1
▁tecnologie 1
abilities 1
▁guests 1
▁Boli 1
anga 1
▁situazioni 1
▁creato 1
äumen 1
▁eingesch 1
▁province 1
▁intit 1
▁jack 1
▁ciencia 1
▁expli 1
▁Philippe 1
älfte 1
ríguez 1
▁compla 1
▁derro 1
▁fiscale 1
▁Aud 1
▁audit 1
▁reper 1
▁siguen 1
monte 1
▁nessuna 1
▁legen 1
▁impre 1
▁promozione 1
dal 1
▁importe 1
▁livraison 1
▁Municipal 1
▁ingresos 1
letz 1
▁Capit 1
▁morale 1
▁Pú 1
▁opportunità 1
▁membri 1
arian 1
▁franco 1
▁indispensable 1
AA 1
▁gastos 1
apore 1
▁asci 1
▁nacionales 1
▁unless 1
▁classifica 1
▁sof 1
▁advis 1
▁podido 1
▁ended 1
=" 1
going 1
▁Town 1
▁Grundlage 1
OE 1
▁recorrido 1
▁dén 1
onneur 1
toires 1
ueur 1
▁anc 1
▁rêve 1
▁canad 1
▁grunds 1
▁intéressant 1
▁évidemment 1
alisti 1
▁begeister 1
olz 1
▁nombres 1
INA 1
attenzione 1
▁comand 1
▁vecchio 1
▁terapia 1
ministrat 1
▁mauvais 1
▁públicas 1
▁legisl 1
▁Heimat 1
▁demonstra 1
Art 1
tissimi 1
lait 1
▁Staff 1
▁trouble 1
effe 1
dim 1
▁Oc 1
installation 1
▁Sic 1
▁Chine 1
▁mons 1
jal 1
▁excess 1
▁mostly 1
▁taste 1
▁atmosph 1
▁yoga 1
▁Dein 1
▁species 1
▁traslad 1
▁Zo 1
uman 1
▁circunst 1
4% 1
organizzazione 1
▁coût 1
known 1
▁warten 1
▁Öl 1
▁Committe 1
▁entrevista 1
SI 1
ötzlich 1
▁distur 1
hensive 1
cación 1
▁deseo 1
boy 1
▁Miner 1
▁exchange 1
▁Medical 1
▁ofrecen 1
▁informó 1
▁brillante 1
▁ulteriori 1
▁Len 1
▁Sir 1
▁erwä 1
▁Local 1
▁ech 1
▁Ana 1
guer 1
▁Hü 1
▁idéal 1
▁compatible 1
▁SPD 1
meros 1
andra 1
▁Franz 1
▁metter 1
▁ere 1
▁laufen 1
▁erreich 1
wissenschaft 1
ésus 1
▁comunidades 1
ondazione 1
woch 1
▁Rai 1
tión 1
▁faudra 1
▁latino 1
▁CF 1
▁imposible 1
▁Young 1
▁attempt 1
istere 1
▁joueur 1
▁continuo 1
mittag 1
▁mén 1
▁commentaires 1
▁victim 1
▁Leggi 1
▁Pag 1
▁Prom 1
▁feedback 1
▁Wege 1
▁Mid 1
ánchez 1
▁pir 1
▁Tats 1
▁campionato 1
▁SD 1
▁doct 1
▁razones 1
▁integral 1
▁aprovech 1
▁Bow 1
fassung 1
▁Rodríguez 1
▁totally 1
▁fichier 1
▁poca 1
▁Fotograf 1
inik 1
sport 1
▁Bruno 1
▁tromp 1
▁Stan 1
▁chien 1
▁Search 1
▁lago 1
▁quiet 1
▁detrás 1
▁organizzato 1
▁styles 1
führen 1
quées 1
▁entsprechenden 1
▁Glau 1
▁passiert 1
▁Frankreich 1
▁Point 1
▁lac 1
▁Optim 1
▁objectifs 1
▁reac 1
veloppe 1
?. 1
aches 1
ernt 1
▁closed 1
▁pies 1
▁chances 1
terre 1
▁Kommunikation 1
▁Ã 1
▁185 1
▁Kreuz 1
▁interf 1
▁factores 1
▁traspar 1
▁unità 1
▁conoce 1
▁Base 1
▁Pier 1
▁revista 1
▁detailed 1
▁ultima 1
▁titoli 1
▁Kombination 1
▁código 1
▁magist 1
ARE 1
explo 1
▁Servicios 1
▁prestig 1
▁romanzo 1
▁cumplimiento 1
▁Nachbar 1
▁pensa 1
▁sottos 1
loy 1
Cont 1
▁1,5 1
▁managed 1
▁vergessen 1
euros 1
▁Infos 1
▁expertos 1
▁schl 1
▁stick 1
▁Regierung 1
lishing 1
▁Stri 1
ressed 1
▁Ländern 1
▁Eigent 1
▁programmi 1
books 1
▁funciona 1
▁manche 1
▁exciting 1
itant 1
mental 1
▁Systems 1
▁Mannschaft 1
▁Int 1
▁evol 1
hér 1
▁1997 1
prof 1
▁189 1
▁nascita 1
occu 1
edad 1
▁starts 1
▁collezione 1
▁transmission 1
▁Math 1
▁pueblos 1
tahl 1
ühm 1
todos 1
▁Neue 1
▁circum 1
▁privado 1
▁preocupa 1
▁métal 1
intendo 1
qualität 1
▁paio 1
▁Galler 1
▁altra 1
▁tenían 1
▁Buy 1
▁weder 1
▁deinen 1
▁discu 1
▁pc 1
orthern 1
▁viennent 1
▁riche 1
ffene 1
▁pm 1
▁instance 1
▁incons 1
éducation 1
▁offens 1
ventura 1
mobil 1
▁Hasta 1
tamenti 1
▁Relig 1
▁internationalen 1
▁voulait 1
▁Anmeldung 1
▁Fans 1
igneur 1
▁2010. 1
▁alb 1
▁bienes 1
▁gebor 1
▁Tiere 1
▁lotta 1
▁Expl 1
▁indos 1
▁debes 1
bilder 1
▁notizia 1
▁piso 1
▁registered 1
▁Kirchen 1
▁réal 1
ulares 1
▁Weiß 1
▁Flüchtl 1
▁hubo 1
abin 1
▁Erinner 1
▁premium 1
▁describe 1
▁évent 1
▁attrib 1
▁Noi 1
▁writer 1
▁Jazz 1
▁vuelve 1
▁Alf 1
▁agrad 1
▁prévu 1
▁inferior 1
▁afferm 1
untad 1
▁período 1
▁milliards 1
▁Vom 1
▁contexte 1
▁hack 1
▁ausdrück 1
▁caff 1
▁plastic 1
tissima 1
alty 1
▁dubbio 1
▁visiter 1
▁Ceci 1
xelles 1
▁domani 1
ändler 1
▁préparation 1
delà 1
▁poteva 1
▁SH 1
▁Kilometer 1
▁ausz 1
▁passant 1
▁Sow 1
▁beaux 1
▁Begriff 1
▁preparazione 1
▁paix 1
▁policies 1
▁78 1
istics 1
▁readers 1
▁Bewegung 1
▁Orts 1
▁Sei 1
▁Lü 1
▁Veranstaltungen 1
▁Quad 1
▁forest 1
▁Capital 1
benen 1
▁Carl 1
▁hook 1
▁complé 1
▁Penn 1
▁Gian 1
▁fate 1
▁Experten 1
▁reconocimiento 1
orazione 1
▁Sher 1
▁Metall 1
▁Only 1
▁comercio 1
▁quote 1
▁impegno 1
▁variable 1
▁teachers 1
▁sonido 1
▁label 1
▁bound 1
▁torno 1
▁eating 1
▁push 1
emagne 1
▁espero 1
▁Solar 1
▁Katzen 1
▁régimen 1
olis 1
▁Cant 1
▁aband 1
▁durchgeführt 1
▁négo 1
▁Hong 1
▁Sánchez 1
▁Milan 1
most 1
▁fitness 1
▁versions 1
▁Nachrichten 1
▁komb 1
▁30. 1
▁specifico 1
utiliser 1
▁Portugal 1
▁escuchar 1
▁construir 1
▁herum 1
▁propuestas 1
▁llevó 1
phy 1
▁stores 1
▁cities 1
▁entreprene 1
▁diverses 1
▁Travel 1
▁Zentrum 1
▁processi 1
stät 1
▁papa 1
▁dispositivos 1
▁Jacques 1
▁habitu 1
▁Bevölker 1
▁indépend 1
itage 1
▁vene 1
▁fisica 1
▁fallait 1
▁convention 1
▁breath 1
▁colombi 1
tivity 1
▁inzwischen 1
▁Grad 1
udere 1
▁guarda 1
▁gira 1
LS 1
▁Otto 1
▁beteili 1
▁vielfäl 1
utri 1
▁río 1
▁Umgang 1
▁alcuna 1
▁denken 1
▁units 1
▁autore 1
▁limpi 1
▁purposes 1
▁flor 1
▁brings 1
▁bird 1
▁aggiungere 1
▁filled 1
▁ég 1
▁jün 1
▁Terre 1
▁sensación 1
Pal 1
timmen 1
▁Sergio 1
▁historique 1
▁Immobilien 1
▁Ster 1
▁procedura 1
▁herunter 1
▁roof 1
plex 1
▁Pays 1
▁näher 1
▁reso 1
▁19, 1
▁acht 1
lai 1
orities 1
chelle 1
essel 1
▁Marke 1
atrici 1
▁whom 1
▁Grâce 1
▁giusta 1
▁afirma 1
▁coloni 1
▁associations 1
▁imagine 1
ITA 1
▁condición 1
▁asum 1
▁accad 1
▁ricost 1
▁Donnerstag 1
▁estén 1
▁puisqu 1
▁harm 1
▁Express 1
▁seat 1
▁sbagli 1
▁Sevilla 1
▁parecer 1
▁sociétés 1
▁policía 1
▁beachten 1
legung 1
▁Put 1
▁siquiera 1
▁Proto 1
▁busc 1
▁Promo 1
▁ricevere 1
▁cari 1
▁seeking 1
▁Schreib 1
▁Kritik 1
▁seemed 1
onnée 1
▁Vu 1
tenti 1
▁Handels 1
▁hayan 1
ottura 1
▁scelte 1
▁Fass 1
▁atle 1
▁forcément 1
▁edge 1
▁Article 1
flo 1
▁explicó 1
▁presentes 1
▁Bildung 1
astre 1
▁garantizar 1
din 1
▁legend 1
riebe 1
▁mono 1
▁canciones 1
▁León 1
berry 1
aken 1
▁erwarten 1
avano 1
▁Schle 1
▁zahlreichen 1
▁disponibilità 1
lers 1
▁ließ 1
mary 1
▁parco 1
▁environmental 1
▁pade 1
▁wohn 1
▁bestimmte 1
▁visitare 1
▁cultiv 1
▁enn 1
▁comienza 1
▁Case 1
▁harmon 1
orten 1
▁conseguenza 1
▁department 1
platte 1
▁jump 1
agio 1
ficar 1
lando 1
▁recep 1
▁centa 1
▁terrasse 1
unesse 1
linie 1
istato 1
▁métier 1
▁humain 1
▁Story 1
anmoins 1
zif 1
nies 1
▁Gö 1
▁>> 1
▁britann 1
▁verfügbar 1
▁diagnostic 1
ález 1
▁ced 1
▁distribución 1
liert 1
▁banco 1
▁bright 1
▁enlace 1
Sp 1
▁nette 1
▁producir 1
▁convic 1
▁Academy 1
▁nachhal 1
▁funds 1
▁conclu 1
zare 1
▁ripar 1
▁Private 1
▁Pel 1
▁Contro 1
▁chiusura 1
▁ristorante 1
▁ataque 1
▁Henry 1
▁Dorf 1
▁components 1
Imp 1
▁sorti 1
▁nazionali 1
▁aproximadamente 1
▁amateur 1
▁schlecht 1
rantes 1
zir 1
▁pit 1
▁Both 1
▁Rechte 1
▁kennt 1
▁Regist 1
▁tarjeta 1
▁sogno 1
▁fleurs 1
améli 1
▁Rey 1
▁verifica 1
aki 1
▁resolution 1
▁Anlage 1
▁Gerade 1
▁quadro 1
mous 1
▁Bla 1
▁expensive 1
ñar 1
▁qualunque 1
▁District 1
▁beob 1
ográ 1
▁coupe 1
mez 1
▁Gut 1
▁Wohnzimmer 1
tonces 1
▁ads 1
▁Waren 1
▁paiement 1
▁bezeichnet 1
rou 1
issa 1
▁milliers 1
ordan 1
▁accessori 1
▁lente 1
▁cursos 1
▁dehors 1
▁coqu 1
▁überall 1
-18 1
▁fed 1
▁lait 1
▁Yoga 1
▁neuf 1
▁apartment 1
▁Kas 1
▁fai 1
▁adapté 1
gren 1
▁Italiana 1
▁RA 1
lado 1
Unione 1
▁Jackson 1
▁Boston 1
▁raised 1
tagne 1
▁batterie 1
▁Energy 1
rock 1
▁coste 1
▁numerose 1
stes 1
▁firme 1
▁invis 1
▁Jésus 1
où 1
▁beträgt 1
▁ahor 1
/5 1
▁abbandon 1
▁conexión 1
▁chilometri 1
vy 1
▁absolut 1
cad 1
▁expresión 1
charge 1
winger 1
▁ambito 1
▁graves 1
▁magasin 1
▁seri 1
▁solicitar 1
▁maît 1
▁tela 1
▁utilizza 1
▁esqu 1
▁recherches 1
▁gutes 1
▁Carolina 1
licate 1
▁Hub 1
arily 1
▁focused 1
ratto 1
▁féd 1
windigkeit 1
▁utilisation 1
▁opération 1
rechts 1
Vers 1
▁Before 1
▁Batter 1
▁Sobre 1
illi 1
▁Spring 1
mila 1
vedì 1
▁faccio 1
▁applicazioni 1
▁Zweck 1
onais 1
fragt 1
▁reicht 1
▁logement 1
▁conquista 1
user 1
▁myth 1
▁suppor 1
▁visitors 1
▁Bereichen 1
▁porto 1
▁Sein 1
▁fee 1
▁incremento 1
Gra 1
▁relacionados 1
▁McC 1
▁meme 1
▁agenda 1
▁Lorenzo 1
▁Ej 1
▁âge 1
▁réflé 1
▁Metal 1
entino 1
▁famosa 1
fänger 1
uvez 1
▁mouth 1
▁lancer 1
▁markets 1
▁culturali 1
▁chiama 1
▁eh 1
▁Gros 1
▁attendre 1
économie 1
kat 1
▁Gruppo 1
▁scrive 1
▁possibly 1
▁elegan 1
▁sept 1
ISS 1
▁negozio 1
▁portable 1
▁Uomo 1
intero 1
61 1
▁possano 1
▁corsa 1
▁noticia 1
umé 1
▁Paesi 1
▁pension 1
▁víctimas 1
▁worry 1
▁notic 1
istici 1
▁Gefahr 1
▁artistas 1
▁cerem 1
▁limpie 1
▁nic 1
stal 1
wish 1
▁fresco 1
▁Pflanzen 1
▁prestigi 1
▁wahrscheinlich 1
▁merveille 1
▁African 1
zepte 1
▁tôt 1
tagen 1
cienza 1
▁salt 1
▁Sout 1
offre 1
card 1
▁crédito 1
▁descubrir 1
▁purtroppo 1
▁azione 1
entaire 1
▁emprend 1
▁Erde 1
▁Concer 1
▁riduzione 1
▁farsi 1
▁conduct 1
▁oublier 1
ALL 1
▁dinner 1
pera 1
▁BB 1
unale 1
bin 1
▁Fan 1
▁américain 1
▁classico 1
erves 1
▁Dauer 1
▁diven 1
▁cardio 1
lat 1
atern 1
arition 1
▁spricht 1
iting 1
▁Guy 1
▁Tay 1
administration 1
▁célèbre 1
gern 1
iziativa 1
▁Hör 1
▁Brief 1
▁artigi 1
ducing 1
▁piattaforma 1
▁brother 1
▁spr 1
▁Dokument 1
▁González 1
▁rápida 1
ieso 1
▁Aufent 1
eu 1
ámica 1
▁température 1
▁iniziare 1
71 1
ueux 1
▁assurer 1
▁battle 1
bby 1
▁sieben 1
▁collect 1
▁elas 1
▁shipping 1
▁Disc 1
▁meant 1
▁Lac 1
▁sullo 1
individ 1
ismos 1
chnen 1
▁delante 1
▁instructions 1
▁fondos 1
▁arbeitet 1
▁genannten 1
▁approximately 1
▁Papier 1
▁adultos 1
▁comentario 1
▁annoncé 1
▁rifiuti 1
rò 1
▁Congress 1
pruch 1
▁Jane 1
▁intér 1
▁spending 1
▁ridurre 1
clé 1
▁Aspe 1
▁stratégie 1
▁sfida 1
▁voulu 1
▁Infatti 1
▁Anth 1
figur 1
▁ME 1
▁gestern 1
▁juris 1
▁exclusive 1
▁partag 1
▁partecipanti 1
mement 1
tiples 1
▁statut 1
▁Agent 1
▁Nature 1
enste 1
Script 1
usted 1
▁Programa 1
▁gh 1
▁Conven 1
▁125 1
▁sorta 1
▁proches 1
ologi 1
▁Follow 1
▁suscep 1
▁divul 1
uries 1
▁juntos 1
▁university 1
isiert 1
wortet 1
envo 1
▁eccell 1
isci 1
lett 1
▁Marine 1
▁Muy 1
▁contexto 1
▁insta 1
▁Mountain 1
▁ceci 1
▁spect 1
letas 1
▁gesund 1
▁venga 1
▁Sexy 1
▁passen 1
prüche 1
▁intención 1
▁despite 1
▁ausgestattet 1
poir 1
▁atmos 1
▁Welche 1
onic 1
▁campus 1
▁functions 1
▁venue 1
▁oportunidades 1
▁ofertas 1
▁propiet 1
▁LG 1
my 1
▁), 1
▁pizza 1
▁circuito 1
-11 1
▁croy 1
▁practical 1
▁pagare 1
▁convertido 1
▁ricevuto 1
▁associazioni 1
▁AF 1
▁Piano 1
▁abra 1
alta 1
riche 1
▁tarea 1
▁migliaia 1
▁Stad 1
▁handicap 1
▁dejado 1
▁Spielen 1
▁Solu 1
▁spiritu 1
▁kostenlose 1
▁gustaría 1
▁müs 1
tempo 1
édition 1
▁Berliner 1
▁satisfaction 1
▁Committee 1
▁Suisse 1
▁string 1
,. 1
wi 1
▁caja 1
riendo 1
▁recordar 1
Car 1
▁empresari 1
▁Dog 1
▁Kaffee 1
PM 1
▁esprit 1
▁Action 1
▁Lé 1
▁excl 1
▁talento 1
ficit 1
▁besuchen 1
▁kommenden 1
▁habitantes 1
▁Rafa 1
bilité 1
▁leads 1
retti 1
▁MB 1
ornos 1
▁1996 1
▁algor 1
▁guardare 1
holen 1
▁indie 1
▁hermano 1
▁ober 1
reuung 1
▁fonte 1
aglia 1
glement 1
▁Gesicht 1
▁chaleur 1
▁ciascun 1
ografía 1
▁lus 1
▁exige 1
▁discours 1
▁entschieden 1
chtung 1
▁OK 1
72 1
klasse 1
▁trial 1
▁Democra 1
▁dinam 1
▁encontramos 1
▁gez 1
▁Leder 1
▁answers 1
VER 1
▁Découvrez 1
▁fabrication 1
▁layer 1
ligencia 1
▁Dafür 1
▁concetto 1
▁estadounidense 1
ferenz 1
▁Escuela 1
▁ouverte 1
iors 1
irts 1
▁femin 1
▁Virt 1
orney 1
▁alma 1
seille 1
▁Mittwoch 1
gée 1
▁Aufs 1
▁pronunci 1
ending 1
ológicos 1
code 1
▁prospe 1
▁meuble 1
Fran 1
ziali 1
▁imagin 1
▁electro 1
▁Finalmente 1
tione 1
▁término 1
pha 1
▁Agu 1
▁diza 1
▁Rücken 1
▁incend 1
▁preocup 1
gte 1
▁Hern 1
▁cement 1
▁Alta 1
▁uner 1
▁supon 1
▁victoire 1
gesellschaft 1
”) 1
ôte 1
▁sciences 1
▁detal 1
▁acquisto 1
llung 1
▁devis 1
tert 1
▁Cono 1
armac 1
▁attes 1
▁museo 1
aurais 1
▁termina 1
▁publicidad 1
▁versati 1
▁Karte 1
lamm 1
ussy 1
alleng 1
▁femen 1
Las 1
otor 1
▁Sprach 1
▁square 1
▁piatti 1
▁assicura 1
ünftig 1
▁Qualitäts 1
▁responsibility 1
▁tat 1
▁pezzi 1
anch 1
▁Colum 1
▁Estudi 1
▁Lavor 1
▁buff 1
▁danse 1
▁travaill 1
ciata 1
▁religious 1
areas 1
▁advertising 1
▁Kant 1
fert 1
▁Miami 1
▁probablement 1
▁suel 1
▁Salle 1
▁Prob 1
gien 1
▁conciencia 1
▁Comunidad 1
▁comprare 1
▁residents 1
▁impegna 1
▁accedere 1
Intern 1
▁benötigen 1
▁Utili 1
ización 1
▁committed 1
▁mandat 1
▁21, 1
▁25. 1
▁gama 1
öp 1
▁Fäh 1
▁simili 1
▁Area 1
▁bacter 1
▁busy 1
▁Alters 1
▁updated 1
▁aiutare 1
▁Lösungen 1
▁comprome 1
▁marchio 1
▁spirito 1
▁CM 1
▁Sito 1
writer 1
▁sirve 1
▁cint 1
▁Alemania 1
▁Bron 1
▁voluntad 1
▁HS 1
▁provenienti 1
inton 1
▁intérieur 1
▁Whats 1
▁SN 1
blissement 1
▁Voilà 1
▁3) 1
▁thread 1
onnées 1
yecto 1
▁Má 1
istent 1
▁débat 1
▁absolument 1
▁roi 1
▁sfor 1
▁Baus 1
▁vérité 1
▁Virginia 1
▁:: 1
▁Semp 1
▁reporta 1
▁Extre 1
▁contrast 1
yos 1
▁Tiene 1
▁privé 1
lido 1
▁detalle 1
▁gefallen 1
resses 1
▁Suite 1
▁doors 1
ILL 1
cendo 1
▁composition 1
▁Albert 1
▁detall 1
ftig 1
▁ferme 1
umbre 1
▁wechs 1
▁secund 1
▁doubt 1
quali 1
Do 1
fted 1
▁24. 1
▁Zeichen 1
▁costruire 1
▁discipline 1
.10. 1
▁risposte 1
▁fiction 1
▁giocatori 1
..." 1
reur 1
▁putting 1
▁collectiv 1
▁humaine 1
lernen 1
fortunately 1
▁Teen 1
applicazione 1
età 1
▁symbo 1
▁Junta 1
▁bid 1
▁fuel 1
▁mensch 1
inkel 1
▁tomber 1
▁academic 1
▁Kunde 1
▁arred 1
bras 1
igno 1
▁connaissances 1
▁miembro 1
apé 1
▁Turismo 1
▁carro 1
missions 1
▁método 1
▁entweder 1
▁decisions 1
▁déclaré 1
betrieb 1
▁Fuer 1
analisi 1
aturing 1
maschine 1
TML 1
ART 1
appel 1
▁Prime 1
▁clubs 1
▁seno 1
vey 1
ündung 1
▁Has 1
▁aspira 1
▁gras 1
▁patio 1
EE 1
GO 1
▁desire 1
▁Profil 1
uden 1
▁institución 1
▁23. 1
icans 1
▁Mate 1
▁bike 1
▁Sä 1
▁parque 1
▁españoles 1
▁dining 1
▁Adam 1
▁slightly 1
▁62 1
orias 1
▁Analyse 1
▁Golden 1
▁americano 1
cón 1
▁MO 1
kus 1
▁historias 1
▁kür 1
▁capace 1
▁protagonisti 1
▁intense 1
zco 1
▁volumen 1
▁lance 1
▁tratto 1
▁Scot 1
▁stazione 1
IK 1
▁adatta 1
▁Zer 1
▁déci 1
▁Envir 1
▁fondi 1
▁Kooper 1
▁präsentiert 1
▁Está 1
force 1
▁Johnson 1
▁regret 1
llate 1
▁Javier 1
▁Lei 1
ricol 1
▁größte 1
▁schneller 1
gion 1
▁Motiv 1
▁rese 1
▁leaves 1
▁examples 1
▁terminar 1
iete 1
▁richiede 1
prä 1
▁actos 1
▁facility 1
▁Martí 1
▁Fahrrad 1
▁Dres 1
▁vender 1
▁urs 1
▁obiettivo 1
▁précise 1
▁Nintendo 1
ARD 1
▁mirada 1
▁tavolo 1
has 1
bungen 1
▁Linie 1
▁intended 1
▁especta 1
chetto 1
▁foll 1
design 1
▁2006, 1
oue 1
▁Auff 1
▁efficient 1
▁determined 1
night 1
enteuer 1
▁potencial 1
enseignement 1
aven 1
sea 1
▁'' 1
▁holding 1
▁partenaire 1
▁fiori 1
▁eccess 1
▁pse 1
▁pasando 1
▁continuare 1
viel 1
63 1
geschä 1
utato 1
▁seres 1
▁Trat 1
▁dispositivi 1
amentos 1
▁Président 1
▁ergän 1
▁cadena 1
▁Geschichten 1
▁district 1
▁Vice 1
▁voci 1
ongono 1
orgt 1
▁penso 1
▁Projekte 1
▁conflic 1
▁phrase 1
▁bilancio 1
▁Dev 1
▁Eje 1
▁creado 1
imas 1
▁Haupts 1
▁entour 1
74 1
▁pubblicazione 1
timmungen 1
▁criminal 1
▁bim 1
mettere 1
▁paciente 1
▁aggiung 1
▁unmittel 1
linien 1
▁falt 1
▁mate 1
▁ult 1
▁standing 1
▁specifically 1
▁gorge 1
▁Jahrhundert 1
▁scientific 1
icacité 1
▁recuerdo 1
ugg 1
▁immediatamente 1
▁aiuto 1
▁médecin 1
▁fees 1
▁armas 1
▁Bedingungen 1
taine 1
▁amplio 1
▁PO 1
proble 1
▁intervention 1
▁próxima 1
▁advance 1
▁allowing 1
intro 1
▁strategies 1
▁Little 1
hindern 1
▁recommended 1
▁hydro 1
▁defens 1
▁juicio 1
▁Ec 1
▁Rang 1
puestas 1
▁aumentar 1
▁marg 1
▁leyendo 1
arición 1
▁Schlafzimmer 1
olini 1
▁ocurre 1
▁erhältlich 1
▁barre 1
-15 1
▁Hof 1
▁RT 1
IDAD 1
anale 1
▁aseguró 1
▁Mexico 1
entamente 1
▁Catal 1
iments 1
▁Chem 1
▁ripro 1
▁rispondere 1
▁Pendant 1
▁vid 1
ourir 1
▁empleados 1
isseur 1
▁seguente 1
▁UE 1
asto 1
▁desser 1
▁Fondazione 1
▁Where 1
▁encant 1
▁mult 1
▁diges 1
cated 1
▁prest 1
▁abstra 1
▁manutenzione 1
▁appuntamento 1
▁speriment 1
▁marito 1
▁commentaire 1
▁perió 1
▁random 1
▁Russian 1
▁niemand 1
▁vacanze 1
▁Sí 1
▁Element 1
▁cierre 1
▁Bege 1
▁precip 1
▁réduire 1
▁gehe 1
▁sinc 1
▁necesaria 1
hentic 1
▁imprend 1
▁dipendenti 1
▁pond 1
ATE 1
eldorf 1
▁toler 1
▁library 1
Que 1
▁Nied 1
▁recibido 1
▁Fox 1
▁geste 1
▁monument 1
▁Luigi 1
▁promedio 1
▁Mira 1
▁asign 1
▁Peut 1
iano 1
ktiven 1
▁condivis 1
esterday 1
lite 1
▁libert 1
▁histórico 1
▁leche 1
▁medes 1
▁aspir 1
▁volunte 1
▁Mainten 1
▁dialogue 1
▁scén 1
▁4- 1
schw 1
▁Vidé 1
▁délic 1
▁préparer 1
▁Rö 1
▁típ 1
▁erstellen 1
▁mensajes 1
▁estad 1
▁DR 1
roffene 1
diendo 1
▁debajo 1
which 1
▁permesso 1
versa 1
gió 1
▁Gewicht 1
cutivo 1
▁Beiträge 1
ié 1
▁procedimiento 1
▁cream 1
▁kombin 1
▁cottura 1
▁Vergangen 1
PD 1
▁rup 1
tazioni 1
▁intervención 1
▁Performance 1
vs 1
intern 1
▁properly 1
▁tombe 1
▁repub 1
tisation 1
steuer 1
▁manga 1
▁carriera 1
▁Review 1
▁africa 1
▁nuclear 1
iniziativa 1
▁habitual 1
▁affordable 1
▁poch 1
hoo 1
▁Walter 1
▁pretende 1
ificazione 1
▁limpieza 1
▁Bernard 1
arvi 1
eux 1
▁departamento 1
▁ständig 1
▁lasciato 1
prechen 1
▁emozioni 1
▁successivo 1
▁silence 1
▁supérieur 1
▁principalement 1
▁Cham 1
Ac 1
url 1
▁Danke 1
▁explain 1
▁uniform 1
passt 1
▁fonctions 1
2017 1
enzia 1
▁Stefano 1
▁interface 1
▁pertanto 1
▁Fisch 1
▁Email 1
▁boul 1
▁artistes 1
▁Muchas 1
sm 1
▁ricorda 1
▁leyes 1
▁carto 1
▁arrière 1
oub 1
dazione 1
▁aug 1
▁injury 1
ivas 1
▁Netzwerk 1
unn 1
alda 1
▁anime 1
▁catch 1
lying 1
▁pregn 1
▁objetos 1
americana 1
arrivée 1
▁directa 1
▁trig 1
gados 1
▁pasada 1
▁Bitcoin 1
ciuto 1
▁Solid 1
▁begann 1
▁Elektro 1
▁cinemato 1
tations 1
▁FL 1
real 1
worth 1
▁glaube 1
▁feels 1
▁maggioranza 1
▁vorrei 1
▁kleines 1
irà 1
▁Lern 1
▁vigente 1
▁eventually 1
nat 1
érale 1
commerce 1
▁transformation 1
imentazione 1
▁gon 1
▁Gh 1
▁favour 1
▁Copa 1
▁Sarah 1
▁1995 1
estero 1
▁Spirit 1
HL 1
wall 1
objectif 1
▁offerta 1
▁preserv 1
▁trägt 1
anischen 1
▁sente 1
▁Chambre 1
▁98 1
▁planet 1
▁bâtiment 1
▁Gang 1
▁Japanese 1
▁prossima 1
▁communes 1
évolution 1
offerta 1
▁partis 1
▁asking 1
▁concret 1
▁pâ 1
aments 1
▁prises 1
▁Partido 1
▁bater 1
▁vistas 1
▁removed 1
▁construire 1
▁pell 1
▁Digit 1
▁revan 1
▁rejoindre 1
what 1
länd 1
▁rise 1
▁imb 1
technik 1
▁fornis 1
▁accidente 1
▁Nuestra 1
▁Tau 1
▁youth 1
assurance 1
▁Produktion 1
lige 1
kunde 1
▁portal 1
▁Aj 1
▁dauer 1
▁pensé 1
▁Giuli 1
▁colour 1
mosphäre 1
ICE 1
▁stiamo 1
terapia 1
▁Foot 1
▁múltiples 1
▁Sec 1
▁30, 1
▁Nico 1
▁Alli 1
▁calda 1
▁gemüt 1
▁Spre 1
▁combusti 1
▁Bible 1
▁apporter 1
glas 1
biano 1
▁gour 1
▁straté 1
dr 1
▁tratti 1
▁gewährle 1
▁puso 1
▁loans 1
▁adjust 1
▁Vegas 1
▁Werbe 1
▁Certains 1
▁reserva 1
▁heutigen 1
▁dimensione 1
chés 1
oluzione 1
trans 1
▁Flex 1
ored 1
tituzione 1
▁63 1
olio 1
▁sitting 1
▁ministère 1
▁pranzo 1
▁Monde 1
▁guest 1
▁requisitos 1
▁Diret 1
▁entscheid 1
istence 1
▁ustedes 1
▁Zar 1
▁Leser 1
▁parlato 1
▁cig 1
▁Acqu 1
xion 1
▁violenza 1
▁Nummer 1
fault 1
▁portata 1
écrit 1
▁Ltd 1
▁Entonces 1
▁Bog 1
▁specifiche 1
usche 1
▁Krampf 1
▁canción 1
ostata 1
▁anywhere 1
▁propósito 1
autant 1
ading 1
▁Baden 1
▁Vorteil 1
▁Él 1
▁Mall 1
▁Quant 1
▁nive 1
▁cambiamento 1
usalem 1
▁oficina 1
▁étape 1
weiß 1
culi 1
prozess 1
▁Quest 1
rupt 1
▁Fondo 1
CL 1
▁scoperta 1
onso 1
schuss 1
▁Diens 1
▁1/2 1
▁Apo 1
▁Kris 1
▁GT 1
stas 1
blings 1
▁returned 1
▁Flash 1
verfahren 1
▁Literatur 1
▁PRE 1
▁Hir 1
▁Lud 1
▁ader 1
▁forti 1
hörden 1
▁intensi 1
▁Fla 1
▁deriva 1
▁legale 1
▁Weil 1
▁seria 1
fälle 1
▁tareas 1
cling 1
ücksichtig 1
▁solicitud 1
zieren 1
▁Ness 1
▁agri 1
▁organisations 1
BR 1
▁dij 1
▁horizont 1
▁blanche 1
▁resistencia 1
▁Wars 1
▁mezcla 1
haber 1
▁Bildungs 1
▁appartement 1
economia 1
▁établi 1
herr 1
▁combined 1
▁inspira 1
▁entraî 1
▁precisa 1
▁teat 1
▁Grafik 1
ansch 1
▁gala 1
▁Leipzig 1
▁Più 1
▁Nei 1
gué 1
▁Beschwer 1
▁jolie 1
▁Interessen 1
ctivas 1
▁Noir 1
avenir 1
▁kilom 1
▁lever 1
tha 1
▁unterschiedlich 1
lley 1
▁erscheint 1
▁grad 1
▁sujets 1
▁tendre 1
angle 1
zzur 1
▁Stär 1
▁signature 1
▁normalmente 1
shops 1
▁cure 1
impe 1
▁fenomeno 1
▁Uni 1
▁entsprechende 1
▁sfrut 1
▁tendencia 1
▁perfettamente 1
isex 1
▁daño 1
▁eingel 1
▁Str 1
▁mancanza 1
▁ubicación 1
▁medicine 1
antie 1
▁cancel 1
▁estren 1
égal 1
▁Möbel 1
▁forno 1
▁170 1
▁internal 1
íz 1
▁crus 1
▁saga 1
▁gesetzt 1
▁codes 1
▁viajes 1
▁officiel 1
▁proteger 1
▁Pul 1
WE 1
▁(20 1
ENTO 1
reten 1
62 1
▁Ross 1
▁naturalmente 1
▁ricco 1
▁Länder 1
▁nurs 1
last 1
▁immers 1
▁démarche 1
▁Zuf 1
waltungs 1
▁dichiarato 1
▁présenté 1
▁Forschung 1
intervento 1
▁plays 1
▁typically 1
▁duración 1
▁Liz 1
▁rimb 1
▁Halloween 1
▁Tierra 1
▁lived 1
▁Führung 1
▁adults 1
▁subse 1
édiatement 1
▁confortable 1
▁61 1
▁Herzen 1
vitra 1
▁sindac 1
▁Télé 1
▁Governo 1
zano 1
▁Force 1
▁plur 1
uez 1
▁mér 1
▁funzionamento 1
album 1
prés 1
▁Voir 1
▁ourselves 1
▁Schiff 1
▁fabrica 1
▁necesarios 1
ICI 1
▁dormit 1
▁previa 1
▁debt 1
▁urba 1
▁Schloss 1
▁zeich 1
▁phénom 1
▁Vorsitz 1
▁recupero 1
▁Esper 1
▁Frühstück 1
▁aer 1
▁cancell 1
imag 1
prüfung 1
idez 1
▁vantaggio 1
▁révolution 1
riting 1
tifiz 1
informations 1
▁difficultés 1
ciles 1
onner 1
mpa 1
▁poster 1
▁scad 1
▁umana 1
road 1
▁toutefois 1
▁Forschungs 1
▁reached 1
▁electronic 1
▁Geheim 1
▁egg 1
▁Diff 1
▁ocupa 1
30. 1
▁professionali 1
▁Mme 1
▁promos 1
▁polizia 1
▁Werbung 1
▁erzählt 1
▁protected 1
TT 1
intera 1
▁remind 1
▁impresion 1
▁obblig 1
enzen 1
▁rene 1
▁alimenti 1
▁salariés 1
▁shap 1
▁großes 1
▁rispet 1
▁rojo 1
wäl 1
▁largement 1
▁dévo 1
▁existence 1
human 1
▁:-) 1
rägen 1
▁applicazione 1
▁schrift 1
▁acord 1
unehm 1
▁quedan 1
▁Equ 1
▁restaurante 1
hai 1
▁archivos 1
trop 1
union 1
▁cáncer 1
veri 1
▁Bord 1
etermin 1
▁patrimoine 1
▁folgen 1
/2017 1
▁Ox 1
▁nomi 1
ERE 1
▁tens 1
▁tiers 1
▁revient 1
wä 1
▁condam 1
▁robot 1
▁Vent 1
▁scolaire 1
▁Appro 1
zeige 1
▁supervis 1
▁Jeff 1
▁stone 1
▁Luna 1
▁vamp 1
▁fian 1
▁attiva 1
avons 1
▁Bonn 1
jeuner 1
infe 1
▁Prop 1
▁killed 1
▁verbessern 1
▁Medizin 1
▁piante 1
▁garanzia 1
▁reciente 1
idió 1
▁Monsieur 1
▁Risiko 1
▁lenguaje 1
▁tours 1
▁goods 1
seitig 1
opportun 1
contres 1
▁Antes 1
▁missing 1
▁alleine 1
rarse 1
▁proposé 1
SO 1
▁navigazione 1
▁Hai 1
▁Pérez 1
▁enjo 1
ckte 1
▁NOT 1
viera 1
▁Fernse 1
▁thick 1
▁discovered 1
▁Vac 1
▁aw 1
durch 1
▁mittels 1
rebbe 1
urers 1
▁positiva 1
▁charm 1
▁Hinweis 1
▁conosce 1
bano 1
retario 1
73 1
ógica 1
▁preved 1
▁Fel 1
▁parro 1
▁trifft 1
▁Dark 1
▁clín 1
▁(5) 1
▁angegeben 1
▁Ese 1
onsten 1
▁amenaz 1
▁Aktion 1
▁foi 1
▁beat 1
▁Privacy 1
▁Gutsche 1
▁challeng 1
▁Posted 1
ogna 1
terra 1
anke 1
▁pédagog 1
zahlt 1
▁vali 1
▁mangiare 1
citi 1
adura 1
irsi 1
ständen 1
had 1
▁Grenzen 1
▁3: 1
▁Roc 1
▁Schwar 1
▁dup 1
▁promoción 1
▁erklären 1
▁sugar 1
▁zucch 1
▁tenter 1
iellen 1
ämpfen 1
▁robe 1
graphie 1
Ag 1
ulée 1
haften 1
▁Niger 1
▁escena 1
▁emotional 1
▁Fred 1
▁math 1
▁SMS 1
▁Italian 1
▁grie 1
▁Kevin 1
▁antic 1
▁Ov 1
gerät 1
▁chasse 1
▁tendrán 1
oras 1
ibi 1
mana 1
▁Emer 1
▁vorstellen 1
▁motion 1
▁30% 1
▁fier 1
▁Mak 1
▁Bier 1
▁indis 1
▁Nuestro 1
▁evolución 1
▁Genova 1
▁demain 1
▁comprehensive 1
▁tail 1
▁bewusst 1
▁facilitar 1
Gu 1
▁editor 1
▁voller 1
▁eure 1
▁suitable 1
▁inserire 1
▁coppie 1
▁division 1
version 1
▁gering 1
▁umani 1
omon 1
wear 1
itieren 1
▁myster 1
▁breakfast 1
▁Deli 1
▁uscita 1
▁soprav 1
▁Einkauf 1
▁sicherlich 1
▁cree 1
acho 1
ranti 1
▁routine 1
▁perfecta 1
/3 1
▁Öffentlich 1
▁einger 1
▁appoint 1
bereitung 1
▁Bag 1
▁Nad 1
taining 1
▁coups 1
▁figlia 1
Chr 1
▁scarpe 1
▁mises 1
PG 1
othèque 1
▁hermanos 1
wis 1
tigte 1
riques 1
▁Schlüssel 1
kri 1
▁lect 1
▁Erotik 1
▁planeta 1
▁Low 1
tenir 1
▁magia 1
▁chante 1
▁realize 1
▁Prüf 1
▁siège 1
▁Author 1
▁Gründen 1
▁saint 1
▁tessuto 1
▁témoign 1
ombra 1
▁moindre 1
cule 1
▁prä 1
▁Kamera 1
▁Zugang 1
ications 1
▁Past 1
▁Toul 1
▁rilass 1
▁Creo 1
▁equiv 1
▁accurate 1
▁cosidd 1
▁doppio 1
▁OF 1
▁trees 1
▁attualmente 1
▁guía 1
▁Bruxelles 1
▁architecture 1
▁sämt 1
▁offres 1
ports 1
genti 1
▁Ens 1
ziente 1
▁Rusia 1
▁llevan 1
▁Brad 1
▁lunedì 1
▁faux 1
▁funzionalità 1
arzt 1
▁concurso 1
▁Texte 1
▁Keep 1
▁reforma 1
cesa 1
▁Mission 1
▁Album 1
▁certe 1
itts 1
▁beruf 1
▁consequ 1
▁pensée 1
rill 1
▁sert 1
▁físico 1
▁1- 1
▁vouloir 1
▁commercio 1
grado 1
▁Space 1
▁perdido 1
▁istituzioni 1
mense 1
▁garantie 1
▁suma 1
▁aguas 1
▁Gebrauch 1
▁inso 1
▁ticket 1
▁password 1
▁reich 1
Jäh 1
cieux 1
▁Studie 1
▁Maybe 1
▁Spezial 1
pflege 1
▁maître 1
▁potencia 1
▁Desp 1
▁útil 1
▁Hannover 1
▁aurez 1
▁irreg 1
cile 1
▁Blanc 1
▁pocas 1
▁Rev 1
▁Bestand 1
END 1
▁gehalten 1
▁Ante 1
▁contemporary 1
▁Allgeme 1
▁Deck 1
▁armon 1
▁topics 1
doba 1
liste 1
▁Ress 1
Ger 1
▁Contact 1
ologo 1
▁discussione 1
▁öffentlich 1
▁yes 1
wid 1
▁cess 1
▁prese 1
▁évolu 1
ucci 1
arp 1
▁Adresse 1
▁ubicado 1
venti 1
▁pane 1
▁schia 1
▁movimientos 1
▁Lug 1
▁joined 1
pit 1
▁altamente 1
▁river 1
jaja 1
▁località 1
▁adultes 1
bul 1
▁tecnologías 1
▁puestos 1
▁speranza 1
partimento 1
▁réno 1
americano 1
▁Execu 1
▁desiderio 1
isma 1
WS 1
gage 1
▁ori 1
▁modernen 1
Université 1
▁intende 1
▁denaro 1
▁privée 1
1- 1
▁Eisen 1
▁Hälfte 1
blatt 1
izzata 1
▁slo 1
▁chiamato 1
▁WordPress 1
Spe 1
▁incer 1
▁seconds 1
pad 1
▁magne 1
inser 1
zionato 1
▁consulter 1
6% 1
autom 1
▁Fleisch 1
▁proposed 1
▁Fru 1
▁1994 1
▁measures 1
ktik 1
▁Escort 1
▁pf 1
▁Usu 1
PE 1
gelt 1
▁creando 1
▁Einfluss 1
endemain 1
ppers 1
▁clas 1
▁furono 1
▁Stie 1
▁événements 1
▁Bass 1
▁chie 1
▁itiner 1
▁1950 1
▁tenuto 1
▁Soph 1
▁nine 1
▁conocida 1
▁substanti 1
▁crème 1
▁intelig 1
rics 1
▁introduced 1
▁Led 1
▁giudizio 1
▁pele 1
▁signifie 1
▁puro 1
▁installed 1
▁Gabriel 1
▁quizás 1
▁bestehen 1
▁encontrado 1
▁boss 1
▁saben 1
▁index 1
usammens 1
▁französ 1
▁asistencia 1
hier 1
cchie 1
amblea 1
▁Richt 1
▁Teams 1
▁NAS 1
▁Università 1
wurf 1
▁alimentación 1
▁vehicles 1
bett 1
itana 1
▁grundsätzlich 1
dier 1
biendo 1
▁Beweg 1
▁tribunal 1
▁tardi 1
attuale 1
▁presentado 1
▁immun 1
ürt 1
yaume 1
▁progettazione 1
Sta 1
weite 1
▁folgt 1
▁ottenuto 1
▁caffè 1
ruchs 1
▁ejer 1
▁rappelle 1
▁winning 1
▁réduction 1
▁fonctionne 1
ppon 1
▁Lok 1
▁Geschenk 1
▁destacar 1
▁therapy 1
▁Materialien 1
ispiele 1
▁suelen 1
▁calib 1
▁promote 1
quetas 1
▁tambien 1
▁Gard 1
▁esterno 1
▁Einige 1
▁campi 1
▁riti 1
▁Kategorie 1
▁pire 1
▁Gau 1
adio 1
▁Hello 1
▁ram 1
inch 1
▁wann 1
ellen 1
▁deven 1
▁Know 1
▁Técn 1
▁Düss 1
▁cen 1
▁clip 1
▁arrivato 1
idal 1
▁intenso 1
▁elektron 1
pote 1
▁écoles 1
bian 1
outs 1
▁rur 1
ghe 1
reis 1
▁Alum 1
▁vogliamo 1
▁uscire 1
ifer 1
zesse 1
▁Aufbau 1
▁camping 1
▁Clar 1
▁descrip 1
maschinen 1
▁compagni 1
▁übrigens 1
▁Weiterlesen 1
▁immédiatement 1
▁zieht 1
▁fellow 1
▁Derecho 1
▁imposta 1
udic 1
▁comenzar 1
▁resource 1
▁flight 1
chée 1
▁Stahl 1
▁Cand 1
▁trail 1
▁pourront 1
cindi 1
▁wären 1
ziehungs 1
▁améliorer 1
▁Alessandro 1
ématique 1
▁aplicar 1
▁espress 1
▁considerato 1
▁inspired 1
fur 1
▁interests 1
▁remote 1
▁telles 1
▁festiv 1
cieron 1
▁Divers 1
FOR 1
teria 1
▁coast 1
▁mussten 1
emb 1
▁Koch 1
▁Autos 1
▁piste 1
▁ingredienti 1
ólica 1
ôtés 1
▁copi 1
▁1970 1
ômes 1
▁venezol 1
lant 1
▁Bueno 1
▁gelungen 1
▁homosex 1
▁Total 1
▁Mio 1
▁bau 1
▁eserc 1
Sie 1
▁recibió 1
▁creation 1
▁fell 1
▁trauma 1
cade 1
iration 1
▁concerns 1
▁realización 1
▁cuentan 1
▁Soy 1
▁Ub 1
▁nomin 1
▁paisa 1
Vor 1
HE 1
▁24, 1
▁alem 1
▁clinical 1
ématiques 1
▁consigui 1
▁Calab 1
▁predis 1
ühle 1
▁espectá 1
▁prot 1
Don 1
▁CAS 1
▁venne 1
▁nahm 1
▁Those 1
▁symbol 1
künd 1
▁category 1
ng 1
▁aimé 1
▁plötzlich 1
▁Ciò 1
▁zuk 1
▁serving 1
▁ähnlich 1
▁cheval 1
▁übernehmen 1
▁Departamento 1
▁interessanti 1
▁1.1 1
arium 1
▁Parce 1
▁infantil 1
▁mandato 1
▁tire 1
endosi 1
▁anciens 1
▁calci 1
DC 1
▁racconto 1
▁tron 1
▁élevé 1
uario 1
contra 1
▁Martín 1
▁communications 1
▁Existen 1
▁attuale 1
▁forg 1
▁vini 1
rugu 1
▁chaîne 1
▁Innovation 1
▁ende 1
▁rythme 1
▁figures 1
▁Kund 1
▁Inclus 1
uazione 1
▁carried 1
▁simul 1
équip 1
▁portrait 1
▁gallery 1
jours 1
▁darunter 1
▁drauf 1
▁ums 1
▁gram 1
▁avviene 1
▁Umsetzung 1
▁presentare 1
▁CG 1
▁paro 1
▁frecuencia 1
▁Popular 1
kont 1
▁rápidamente 1
▁Condi 1
icherheit 1
▁distribuzione 1
kturen 1
▁Montréal 1
UNG 1
ército 1
geräte 1
rika 1
▁buono 1
unno 1
▁rar 1
▁concrete 1
Wo 1
▁concepts 1
▁vento 1
kampf 1
▁XVI 1
auber 1
▁Samm 1
▁Wissens 1
▁reliable 1
▁vemos 1
tigten 1
zzle 1
▁entrée 1
▁miteinander 1
▁vraie 1
▁Julio 1
▁hacemos 1
▁fragen 1
entissage 1
▁Información 1
▁intelligence 1
▁cane 1
▁examen 1
▁iglesia 1
inti 1
▁jurid 1
▁Roy 1
▁neck 1
▁Technologie 1
▁wallpaper 1
issi 1
▁Andreas 1
▁Cuisine 1
▁autos 1
ckey 1
▁cans 1
freie 1
ahren 1
▁AND 1
▁Siti 1
market 1
▁responder 1
▁informazione 1
▁refiere 1
▁tickets 1
▁aggiunge 1
▁cous 1
▁Kleid 1
▁niveaux 1
▁signs 1
▁deiner 1
ubs 1
iedono 1
▁terminal 1
idati 1
logos 1
▁pall 1
agé 1
▁située 1
▁Zucker 1
▁segundos 1
ährt 1
erklärung 1
▁arena 1
▁educational 1
▁Wärme 1
▁Fact 1
▁Codice 1
▁Gir 1
▁colocar 1
▁xD 1
92 1
▁comité 1
▁bab 1
▁engage 1
▁reclam 1
ciaio 1
▁considerazione 1
▁traffico 1
▁gérer 1
▁fournir 1
aneta 1
▁Siempre 1
▁Lebensmittel 1
exper 1
▁centres 1
olars 1
▁aprire 1
ae 1
▁ilust 1
▁generazione 1
▁reduced 1
▁Andal 1
▁taxes 1
▁spiritual 1
▁tension 1
uos 1
▁preciso 1
stream 1
▁judicial 1
▁historical 1
▁arric 1
▁putas 1
▁neanche 1
▁constitue 1
▁connais 1
▁fisico 1
▁frutto 1
ñe 1
▁estremamente 1
▁funziona 1
eranno 1
▁Australi 1
▁propon 1
QL 1
halle 1
▁architect 1
▁siento 1
▁Incl 1
▁Paz 1
▁Model 1
▁persönliche 1
ologue 1
▁joie 1
▁dogs 1
autés 1
▁protein 1
▁22, 1
▁Provid 1
▁agentes 1
▁appreciate 1
▁Dienstag 1
▁acaba 1
attere 1
hon 1
▁Sr 1
▁Corso 1
vegli 1
bing 1
lusconi 1
▁presentó 1
▁dient 1
▁Sop 1
▁chicos 1
▁signed 1
▁ambientale 1
▁decen 1
▁Through 1
▁cadeau 1
▁contribution 1
▁propriétaire 1
)... 1
▁Nero 1
hyth 1
▁RO 1
sthe 1
unzione 1
▁recuerda 1
▁Lomb 1
▁Palest 1
instant 1
▁Belgique 1
chend 1
fahrer 1
while 1
▁vicin 1
▁electoral 1
▁originales 1
imit 1
olazioni 1
osph 1
▁consomma 1
▁elegant 1
▁attivo 1
▁Ensuite 1
▁schermo 1
▁photogra 1
▁emploi 1
▁incontrare 1
▁persegu 1
▁misión 1
▁neighborhood 1
▁abre 1
▁vertic 1
▁JavaScript 1
ängst 1
▁bauen 1
▁Kommentar 1
mut 1
▁ost 1
▁Standort 1
▁pourraient 1
▁speziell 1
▁intentar 1
▁côtés 1
érieurs 1
▁object 1
▁schauen 1
▁Gegens 1
▁sguardo 1
▁Bezir 1
▁Speed 1
▁Cooper 1
▁mondial 1
▁lè 1
▁envis 1
▁Folgen 1
▁ajouter 1
irme 1
▁hundreds 1
üse 1
▁orange 1
typ 1
▁weap 1
▁Cá 1
▁Sales 1
▁Bush 1
▁multiples 1
▁Edu 1
▁voler 1
discipl 1
präsident 1
▁Still 1
▁lifest 1
▁|-- 1
▁legit 1
diti 1
rufen 1
▁comport 1
▁seme 1
▁viewed 1
wertungen 1
ancien 1
ísticos 1
▁filter 1
▁privada 1
riculum 1
▁confidence 1
▁sensibili 1
▁calling 1
▁traite 1
funden 1
tienen 1
▁reconocer 1
▁vêtements 1
▁Vergangenheit 1
zing 1
▁Ministro 1
▁necessari 1
▁boll 1
▁arrivé 1
▁housing 1
▁innen 1
▁Schu 1
▁heim 1
▁filo 1
▁chev 1
▁adecuado 1
▁aggiunto 1
▁erstmals 1
orian 1
angebot 1
▁technici 1
abis 1
▁actuación 1
essero 1
tizens 1
ATA 1
▁couples 1
œuvre 1
▁Himmel 1
▁igno 1
▁mezcl 1
▁greatest 1
▁erfahr 1
▁erlaubt 1
▁pont 1
▁Parco 1
▁cierta 1
▁stands 1
▁Città 1
▁hearing 1
▁utilizando 1
▁Nive 1
leucht 1
▁evaluación 1
terdam 1
Mi 1
tw 1
▁identified 1
▁introduction 1
▁comportamiento 1
▁Leid 1
▁aufgenommen 1
▁verhindern 1
camp 1
▁Brook 1
▁aufs 1
▁efectu 1
▁voulais 1
▁aria 1
▁rond 1
▁Krieg 1
ologische 1
▁Wechsel 1
▁MON 1
▁Mund 1
▁getragen 1
▁Signore 1
▁accounts 1
▁finalità 1
▁contactos 1
fac 1
▁collè 1
video 1
▁psico 1
▁espíritu 1
▁utilise 1
▁sore 1
dru 1
änn 1
▁necessaria 1
▁SL 1
roup 1
élect 1
▁habt 1
▁USD 1
manuel 1
▁lendemain 1
▁infraestruct 1
▁ernst 1
▁automatically 1
▁Konzept 1
▁geh 1
▁bebé 1
▁professeur 1
▁capito 1
▁Kompet 1
▁alcance 1
▁Ausstellung 1
▁deberán 1
▁Dès 1
graphy 1
▁clara 1
▁dirigen 1
▁retir 1
▁ty 1
▁Hem 1
▁comportement 1
grès 1
▁Klassen 1
▁exter 1
▁Lehrer 1
▁steuer 1
▁climate 1
MC 1
▁Bref 1
▁EE 1
▁berichtet 1
▁réunion 1
inaires 1
▁immagine 1
▁Hell 1
▁boys 1
▁Runde 1
▁significantly 1
▁Länge 1
▁continuar 1
mac 1
▁Tan 1
▁Sucht 1
▁Erz 1
▁naveg 1
▁2009. 1
1% 1
▁appeared 1
▁ricordare 1
▁beschrieben 1
▁fotografia 1
▁Gali 1
▁Pue 1
▁bocca 1
▁retard 1
▁taller 1
▁proposito 1
▁Buff 1
▁Ware 1
▁Bluetooth 1
▁gius 1
öch 1
▁gang 1
▁spic 1
érateur 1
inage 1
ITE 1
ylon 1
▁Bul 1
▁volon 1
▁décoration 1
▁avanc 1
▁Juvent 1
▁mountain 1
▁Maschinen 1
▁lâ 1
▁Antrag 1
opin 1
▁fenó 1
case 1
▁finance 1
▁riscald 1
▁mercados 1
undi 1
ingly 1
▁Danach 1
▁arrived 1
isations 1
▁ursprün 1
lav 1
riez 1
frau 1
FS 1
▁Charakter 1
▁respet 1
▁savez 1
▁Gewalt 1
▁sabor 1
▁célé 1
capacidad 1
altungs 1
▁Treffen 1
isées 1
▁Direct 1
anders 1
▁suivante 1
▁esca 1
▁mauvaise 1
olamento 1
▁européen 1
▁hie 1
▁Addition 1
▁legi 1
▁zuge 1
▁époque 1
▁individuell 1
▁Ukra 1
▁Famili 1
▁indicate 1
”: 1
ification 1
▁véhicules 1
▁douche 1
▁Awards 1
▁juríd 1
▁tells 1
rones 1
▁funding 1
pelle 1
lingen 1
▁fleur 1
php 1
▁Run 1
▁Carmen 1
▁scompar 1
▁vertreten 1
▁Copy 1
▁wünschen 1
noon 1
▁überzeugt 1
▁eliminar 1
dert 1
èces 1
▁Institut 1
▁commento 1
▁sarebbero 1
▁Alej 1
▁Diagn 1
öpf 1
toffe 1
comm 1
tele 1
▁liés 1
emblea 1
▁penal 1
atoires 1
▁Ausland 1
▁giustizia 1
Im 1
▁sympa 1
▁ambienti 1
▁inkl 1
▁errores 1
▁indiri 1
▁tantos 1
umente 1
▁Falle 1
▁condividere 1
▁sauce 1
▁raccom 1
▁representantes 1
2] 1
▁Drit 1
▁caro 1
▁dritten 1
ibel 1
▁consumer 1
▁oscur 1
▁légèrement 1
▁attorno 1
▁necesitan 1
▁deals 1
▁Geor 1
▁vary 1
▁espaces 1
dine 1
filter 1
ädagog 1
▁perro 1
▁próximos 1
▁Lieblings 1
tivité 1
werks 1
▁récemment 1
▁énor 1
▁Perspe 1
▁Tony 1
▁cout 1
▁Disco 1
thur 1
▁fields 1
▁involuc 1
▁desaf 1
▁comprender 1
▁Lis 1
▁gezeigt 1
▁fixed 1
▁ejecución 1
oir 1
teen 1
ignée 1
▁Persön 1
▁venire 1
▁define 1
▁domaines 1
▁Trabajo 1
▁Servizio 1
usione 1
▁tos 1
▁Philipp 1
▁gelang 1
▁ognuno 1
▁entregar 1
olto 1
▁Ava 1
▁supported 1
rischen 1
▁beraten 1
▁consultation 1
inary 1
▁vetro 1
▁rappro 1
nisch 1
▁Società 1
▁démont 1
▁Milliar 1
HD 1
istik 1
gés 1
gnare 1
▁lunch 1
kunfts 1
▁consecuencias 1
opath 1
▁modifier 1
▁formed 1
▁envío 1
!. 1
▁Arn 1
uther 1
▁conclusion 1
onses 1
▁dettaglio 1
ouss 1
▁Salon 1
▁television 1
▁dejo 1
▁supposed 1
▁comunes 1
▁Toscana 1
midi 1
7% 1
▁corpora 1
tourn 1
▁ambul 1
▁Messe 1
alz 1
▁réflexion 1
ieran 1
▁anten 1
▁sicht 1
▁lleno 1
▁élément 1
▁steig 1
▁ajust 1
wärts 1
▁fallo 1
assegna 1
athon 1
▁critica 1
▁noter 1
▁puesta 1
▁faster 1
▁Sociedad 1
▁pump 1
▁BO 1
▁france 1
▁Tai 1
piration 1
▁settori 1
▁surgery 1
▁controlar 1
atra 1
▁carretera 1
▁personaggio 1
obs 1
cada 1
▁antiguo 1
▁Kh 1
tecn 1
vari 1
ernos 1
áfic 1
çoit 1
▁election 1
▁Fahrt 1
▁théâtre 1
ísima 1
▁depending 1
▁esprim 1
▁Hig 1
▁Schaus 1
▁belong 1
▁Dadurch 1
▁workshop 1
▁cabin 1
tadora 1
▁Xbox 1
pios 1
▁vaya 1
▁Image 1
anal 1
▁Bestellung 1
▁findest 1
▁defined 1
ficio 1
ratz 1
mails 1
▁Police 1
IRE 1
▁chain 1
▁suces 1
▁percorsi 1
▁russe 1
▁présents 1
▁refres 1
▁DNA 1
cribe 1
mess 1
▁AU 1
▁rigor 1
▁stable 1
▁composé 1
ax 1
icon 1
▁clé 1
▁Minute 1
▁abz 1
achsene 1
▁Latino 1
▁dieron 1
▁esatta 1
▁vinc 1
itaine 1
dauer 1
ärm 1
▁corrente 1
▁Eindruck 1
▁archivo 1
▁Société 1
▁extensive 1
▁anne 1
▁trabaja 1
▁tough 1
▁pharma 1
58 1
ERT 1
▁Fernández 1
▁Ash 1
▁increíble 1
écran 1
▁Feuerwehr 1
▁déch 1
▁Consider 1
700 1
▁Bart 1
▁perfekte 1
ilibre 1
▁innovation 1
▁freedom 1
pfl 1
imil 1
▁pouvant 1
äne 1
rash 1
▁subli 1
▁lights 1
.11 1
▁delivered 1
▁bata 1
▁dangere 1
ders 1
▁Bericht 1
▁Reis 1
▁muro 1
▁massa 1
AY 1
▁prepare 1
▁gewonnen 1
▁Alb 1
▁délai 1
▁avendo 1
▁Moto 1
▁joli 1
▁Culture 1
▁Generation 1
▁Supre 1
▁stated 1
Mon 1
▁nochmal 1
▁changements 1
▁trave 1
▁modulo 1
.:.: 1
▁indicato 1
urger 1
▁abierta 1
mmt 1
rau 1
▁saper 1
▁worldwide 1
▁tennis 1
▁revenue 1
▁affich 1
▁Pourtant 1
▁biens 1
▁Bereits 1
verst 1
&#39; 1
parta 1
▁competitive 1
▁effectivement 1
impresa 1
▁turns 1
▁matériaux 1
▁auss 1
▁acceler 1
▁drugs 1
▁lieben 1
▁Recu 1
▁Orange 1
▁episode 1
ointed 1
▁cazzo 1
male 1
úcar 1
▁Natural 1
▁malattie 1
▁variables 1
▁failure 1
Kon 1
▁citizens 1
Istituto 1
▁autores 1
▁sozialen 1
okra 1
▁Senza 1
▁potrai 1
Up 1
rategias 1
▁officials 1
▁glad 1
▁quím 1
▁fotografía 1
▁componente 1
▁HTML 1
▁taglio 1
▁utilizado 1
rastr 1
▁Doma 1
▁Verantwortung 1
▁hablando 1
iería 1
▁humains 1
▁wesentlich 1
▁rab 1
▁nove 1
▁collective 1
▁1.000 1
▁2005, 1
pertens 1
▁perpet 1
▁authenti 1
▁Programme 1
▁maqu 1
▁commenti 1
59 1
itti 1
▁gun 1
▁ordinateur 1
▁pêche 1
▁célibataires 1
▁Beschäf 1
▁universal 1
▁Kompon 1
▁bilden 1
▁monter 1
▁Trend 1
tisches 1
atico 1
pop 1
bbene 1
▁stom 1
▁shoes 1
▁incluyen 1
▁quantité 1
ciato 1
▁rail 1
▁zunehm 1
▁crucial 1
▁Flughafen 1
▁anzu 1
If 1
uestros 1
quete 1
erapeu 1
▁distra 1
▁réellement 1
OST 1
-------- 1
regierung 1
▁samm 1
▁Conference 1
▁DN 1
Esta 1
▁Nice 1
ético 1
▁channel 1
▁médicos 1
▁cardia 1
itarie 1
▁improved 1
▁NR 1
tiera 1
▁painting 1
▁Gü 1
örter 1
ológicas 1
▁situado 1
▁vorbe 1
▁perfectamente 1
ismi 1
▁sensation 1
antos 1
oubli 1
▁règle 1
▁particuliers 1
▁Krampfadern 1
▁compren 1
eldet 1
▁alcalde 1
▁Rid 1
▁oposición 1
▁noire 1
▁collections 1
▁rire 1
▁Pot 1
▁compré 1
▁Internetseite 1
▁asunto 1
▁geomet 1
indirizzo 1
▁Ereign 1
▁Ultra 1
▁giovan 1
ortiment 1
▁cité 1
▁estación 1
▁fuertes 1
▁welchen 1
▁Ella 1
▁analyse 1
▁clairement 1
▁dico 1
▁sencilla 1
▁bénéficier 1
▁Gam 1
fying 1
environ 1
▁ego 1
phase 1
hension 1
▁francés 1
forderung 1
handel 1
service 1
▁visiting 1
▁receta 1
▁battery 1
▁_ 1
landa 1
▁Gegner 1
▁atteindre 1
▁emergency 1
▁diesel 1
▁farà 1
▁contacts 1
▁gelesen 1
▁circulation 1
▁Sólo 1
ördert 1
▁wichtiger 1
▁Nota 1
orship 1
▁vostre 1
▁Brig 1
▁pauvre 1
illée 1
tels 1
▁venu 1
▁verantwortlich 1
▁Syl 1
▁contamin 1
▁dispers 1
▁Modelle 1
▁rede 1
kret 1
▁Klaus 1
▁soporte 1
▁mister 1
▁definizione 1
ariato 1
▁Alternative 1
▁Ecu 1
kins 1
uelo 1
▁Vorteile 1
oggio 1
-/ 1
▁conden 1
▁1500 1
▁trover 1
rechte 1
▁Scopri 1
▁revanche 1
▁Bevölkerung 1
cli 1
▁Mind 1
▁vérifier 1
▁sky 1
ingresso 1
▁gelegen 1
▁dovranno 1
▁certamente 1
Auf 1
conne 1
genzia 1
occupazione 1
extérieur 1
▁musulman 1
▁chaussures 1
rana 1
gam 1
2). 1
brado 1
▁discorso 1
telligence 1
ACION 1
▁Orte 1
▁reno 1
▁verpflichtet 1
.12. 1
▁apartado 1
▁grün 1
▁risolvere 1
▁Ciencias 1
▁Eint 1
▁GP 1
▁celebración 1
▁ehr 1
▁reflect 1
▁partnership 1
▁popolare 1
▁patro 1
▁Matteo 1
▁convient 1
▁previsti 1
unters 1
▁pratic 1
▁Giorgio 1
▁Continu 1
▁wichtigen 1
▁conférence 1
hoch 1
istentes 1
▁Secretaría 1
▁paziente 1
▁revolution 1
▁Ari 1
▁intento 1
▁décide 1
▁pensamiento 1
▁Keine 1
▁funcionarios 1
▁Cerca 1
▁tente 1
▁SR 1
▁enca 1
pdf 1
▁orch 1
▁peligro 1
ruguay 1
▁Kollegen 1
▁técnicos 1
pson 1
riculture 1
▁accommod 1
tibles 1
▁raise 1
▁Archiv 1
Dis 1
pliz 1
▁Mentre 1
minazione 1
▁provato 1
▁relatives 1
▁lujo 1
▁Silver 1
▁jeunesse 1
▁Pd 1
▁Schulen 1
▁scenario 1
▁niña 1
itazioni 1
ordi 1
▁copertura 1
▁konkre 1
cuni 1
▁laugh 1
▁simbo 1
▁respira 1
beratung 1
▁esposa 1
▁Öffentlichkeit 1
▁Girls 1
▁entrer 1
▁Him 1
▁agradable 1
▁prevenzione 1
▁Justice 1
▁fehl 1
pendencia 1
quar 1
▁Porte 1
you 1
▁foss 1
rachen 1
▁juge 1
▁Griff 1
▁decades 1
▁Urlau 1
▁valle 1
▁pretend 1
▁minimal 1
▁consejos 1
▁Interview 1
lière 1
▁caliente 1
▁kinds 1
▁repeti 1
▁interessant 1
ertos 1
prime 1
▁Alto 1
▁vall 1
▁Salvador 1
▁broken 1
érir 1
alismus 1
▁Fashion 1
hänger 1
▁approved 1
nements 1
▁appearance 1
attaglia 1
lager 1
leger 1
▁Junior 1
▁zucchero 1
▁Eur 1
▁Cort 1
▁traged 1
▁haus 1
▁seuls 1
▁essenzi 1
▁SAL 1
▁neo 1
▁titres 1
▁sínt 1
Os 1
edic 1
▁buildings 1
▁riconoscimento 1
ifel 1
▁establece 1
tierte 1
▁iscri 1
▁Superior 1
▁Fres 1
▁vollständig 1
coled 1
▁notion 1
▁principaux 1
▁5- 1
det 1
▁vantaggi 1
▁Analytics 1
▁pesca 1
oland 1
atoren 1
▁transf 1
ielen 1
▁conflicto 1
▁medizin 1
▁inox 1
▁desay 1
tial 1
▁Mundo 1
▁interrog 1
▁Fis 1
▁sauber 1
▁riesgos 1
stant 1
▁brown 1
▁catastro 1
andre 1
ontane 1
cluding 1
▁Nuevo 1
▁autén 1
ered 1
▁Territ 1
▁baisse 1
ätes 1
▁incid 1
▁Martínez 1
▁posterior 1
adow 1
▁europäischen 1
▁begeistert 1
▁plantes 1
ope 1
▁missions 1
▁clasi 1
▁optimale 1
▁caught 1
ôm 1
▁Hope 1
▁séance 1
▁kurze 1
▁parli 1
adova 1
▁menudo 1
▁storica 1
uves 1
▁mant 1
▁vertical 1
▁Bert 1
eran 1
alco 1
▁Rum 1
▁gym 1
▁corta 1
▁wireless 1
▁Puedes 1
________ 1
▁tea 1
▁zusätzliche 1
▁Planung 1
▁accumul 1
▁verschw 1
▁comunicado 1
▁bull 1
▁Herrn 1
▁sabes 1
▁Beteili 1
▁Further 1
pus 1
▁certi 1
▁Anfrage 1
zzando 1
▁usual 1
▁populaire 1
nummer 1
▁schreibt 1
▁só 1
▁rapports 1
▁Queen 1
▁Verbesser 1
▁scientifique 1
usste 1
ábamos 1
▁Bewertung 1
▁significato 1
▁barra 1
ciaciones 1
▁Castell 1
▁veille 1
▁centina 1
▁lock 1
▁treated 1
▁convierte 1
ascin 1
tedì 1
itung 1
▁soph 1
▁comptes 1
▁scambio 1
▁independiente 1
▁arrivée 1
▁lauf 1
▁inciden 1
▁sportive 1
▁basa 1
▁Allen 1
▁Beziehung 1
▁unders 1
▁cellule 1
▁réception 1
▁lol 1
▁Cad 1
▁autoridad 1
▁robo 1
▁sentenza 1
▁sili 1
▁potenzialità 1
utch 1
▁Unfall 1
▁intelect 1
▁Portal 1
▁dürfte 1
▁// 1
embly 1
▁consta 1
GVO 1
▁false 1
▁Artículo 1
▁contient 1
▁números 1
▁verdadero 1
▁cay 1
▁ridic 1
▁réponses 1
▁interni 1
wann 1
KW 1
funktion 1
▁trama 1
▁indicazioni 1
▁motivos 1
schau 1
häuser 1
▁hung 1
SC 1
▁WC 1
lehr 1
ulty 1
▁Nas 1
▁Fiscal 1
dati 1
▁ricon 1
▁giurid 1
▁fing 1
▁restric 1
▁stellte 1
▁chocolat 1
▁fournisse 1
▁personalmente 1
hist 1
▁pezzo 1
▁Zahlen 1
▁sprach 1
▁gedacht 1
reo 1
rison 1
ordo 1
▁anunció 1
▁Children 1
▁Medik 1
voy 1
▁Garden 1
boden 1
▁Dri 1
endum 1
▁gefü 1
▁Testa 1
▁détru 1
▁amerikan 1
3- 1
▁Barbara 1
▁console 1
▁zuerst 1
ciosa 1
▁brev 1
▁comin 1
▁raggiunto 1
riffe 1
▁74 1
▁Very 1
▁Cic 1
▁Studium 1
▁Castro 1
▁beginnen 1
▁argom 1
▁remise 1
▁Algunos 1
▁IC 1
▁intérêt 1
üten 1
▁perfectly 1
versi 1
▁owned 1
▁abitanti 1
▁Ideal 1
▁configuration 1
[...]
